{
  "version": "1.0",
  "truncation": null,
  "padding": null,
  "added_tokens": [
    {
      "id": 0,
      "content": "<unk>",
      "single_word": false,
      "lstrip": false,
      "rstrip": false,
      "normalized": false,
      "special": true
    },
    {
      "id": 1,
      "content": "<s>",
      "single_word": false,
      "lstrip": false,
      "rstrip": false,
      "normalized": false,
      "special": true
    },
    {
      "id": 2,
      "content": "</s>",
      "single_word": false,
      "lstrip": false,
      "rstrip": false,
      "normalized": false,
      "special": true
    },
    {
      "id": 3,
      "content": "<|im_start|>",
      "single_word": false,
      "lstrip": false,
      "rstrip": false,
      "normalized": false,
      "special": true
    },
    {
      "id": 4,
      "content": "<|im_end|>",
      "single_word": false,
      "lstrip": false,
      "rstrip": false,
      "normalized": false,
      "special": true
    }
  ],
  "normalizer": {
    "type": "NFKC"
  },
  "pre_tokenizer": {
    "type": "ByteLevel",
    "add_prefix_space": false,
    "trim_offsets": true,
    "use_regex": true
  },
  "post_processor": null,
  "decoder": {
    "type": "ByteLevel",
    "add_prefix_space": true,
    "trim_offsets": true,
    "use_regex": true
  },
  "model": {
    "type": "BPE",
    "dropout": null,
    "unk_token": "<unk>",
    "continuing_subword_prefix": null,
    "end_of_word_suffix": null,
    "fuse_unk": false,
    "byte_fallback": false,
    "ignore_merges": false,
    "vocab": {
      "<unk>": 0,
      "<s>": 1,
      "</s>": 2,
      "<|im_start|>": 3,
      "<|im_end|>": 4,
      "!": 5,
      "\"": 6,
      "#": 7,
      "$": 8,
      "%": 9,
      "&": 10,
      "'": 11,
      "(": 12,
      ")": 13,
      "*": 14,
      "+": 15,
      ",": 16,
      "-": 17,
      ".": 18,
      "/": 19,
      "0": 20,
      "1": 21,
      "2": 22,
      "3": 23,
      "4": 24,
      "5": 25,
      "6": 26,
      "7": 27,
      "8": 28,
      "9": 29,
      ":": 30,
      ";": 31,
      "<": 32,
      "=": 33,
      ">": 34,
      "?": 35,
      "@": 36,
      "A": 37,
      "B": 38,
      "C": 39,
      "D": 40,
      "E": 41,
      "F": 42,
      "G": 43,
      "H": 44,
      "I": 45,
      "J": 46,
      "K": 47,
      "L": 48,
      "M": 49,
      "N": 50,
      "O": 51,
      "P": 52,
      "Q": 53,
      "R": 54,
      "S": 55,
      "T": 56,
      "U": 57,
      "V": 58,
      "W": 59,
      "X": 60,
      "Y": 61,
      "Z": 62,
      "[": 63,
      "\\": 64,
      "]": 65,
      "^": 66,
      "_": 67,
      "`": 68,
      "a": 69,
      "b": 70,
      "c": 71,
      "d": 72,
      "e": 73,
      "f": 74,
      "g": 75,
      "h": 76,
      "i": 77,
      "j": 78,
      "k": 79,
      "l": 80,
      "m": 81,
      "n": 82,
      "o": 83,
      "p": 84,
      "q": 85,
      "r": 86,
      "s": 87,
      "t": 88,
      "u": 89,
      "v": 90,
      "w": 91,
      "x": 92,
      "y": 93,
      "z": 94,
      "{": 95,
      "|": 96,
      "}": 97,
      "~": 98,
      "¡": 99,
      "¢": 100,
      "£": 101,
      "¤": 102,
      "¥": 103,
      "¦": 104,
      "§": 105,
      "¨": 106,
      "©": 107,
      "ª": 108,
      "«": 109,
      "¬": 110,
      "®": 111,
      "¯": 112,
      "°": 113,
      "±": 114,
      "²": 115,
      "³": 116,
      "´": 117,
      "µ": 118,
      "¶": 119,
      "·": 120,
      "¸": 121,
      "¹": 122,
      "º": 123,
      "»": 124,
      "¼": 125,
      "½": 126,
      "¾": 127,
      "¿": 128,
      "À": 129,
      "Á": 130,
      "Â": 131,
      "Ã": 132,
      "Ä": 133,
      "Å": 134,
      "Æ": 135,
      "Ç": 136,
      "È": 137,
      "É": 138,
      "Ê": 139,
      "Ë": 140,
      "Ì": 141,
      "Í": 142,
      "Î": 143,
      "Ï": 144,
      "Ð": 145,
      "Ñ": 146,
      "Ò": 147,
      "Ó": 148,
      "Ô": 149,
      "Õ": 150,
      "Ö": 151,
      "×": 152,
      "Ø": 153,
      "Ù": 154,
      "Ú": 155,
      "Û": 156,
      "Ü": 157,
      "Ý": 158,
      "Þ": 159,
      "ß": 160,
      "à": 161,
      "á": 162,
      "â": 163,
      "ã": 164,
      "ä": 165,
      "å": 166,
      "æ": 167,
      "ç": 168,
      "è": 169,
      "é": 170,
      "ê": 171,
      "ë": 172,
      "ì": 173,
      "í": 174,
      "î": 175,
      "ï": 176,
      "ð": 177,
      "ñ": 178,
      "ò": 179,
      "ó": 180,
      "ô": 181,
      "õ": 182,
      "ö": 183,
      "÷": 184,
      "ø": 185,
      "ù": 186,
      "ú": 187,
      "û": 188,
      "ü": 189,
      "ý": 190,
      "þ": 191,
      "ÿ": 192,
      "Ā": 193,
      "ā": 194,
      "Ă": 195,
      "ă": 196,
      "Ą": 197,
      "ą": 198,
      "Ć": 199,
      "ć": 200,
      "Ĉ": 201,
      "ĉ": 202,
      "Ċ": 203,
      "ċ": 204,
      "Č": 205,
      "č": 206,
      "Ď": 207,
      "ď": 208,
      "Đ": 209,
      "đ": 210,
      "Ē": 211,
      "ē": 212,
      "Ĕ": 213,
      "ĕ": 214,
      "Ė": 215,
      "ė": 216,
      "Ę": 217,
      "ę": 218,
      "Ě": 219,
      "ě": 220,
      "Ĝ": 221,
      "ĝ": 222,
      "Ğ": 223,
      "ğ": 224,
      "Ġ": 225,
      "ġ": 226,
      "Ģ": 227,
      "ģ": 228,
      "Ĥ": 229,
      "ĥ": 230,
      "Ħ": 231,
      "ħ": 232,
      "Ĩ": 233,
      "ĩ": 234,
      "Ī": 235,
      "ī": 236,
      "Ĭ": 237,
      "ĭ": 238,
      "Į": 239,
      "į": 240,
      "İ": 241,
      "ı": 242,
      "Ĳ": 243,
      "ĳ": 244,
      "Ĵ": 245,
      "ĵ": 246,
      "Ķ": 247,
      "ķ": 248,
      "ĸ": 249,
      "Ĺ": 250,
      "ĺ": 251,
      "Ļ": 252,
      "ļ": 253,
      "Ľ": 254,
      "ľ": 255,
      "Ŀ": 256,
      "ŀ": 257,
      "Ł": 258,
      "ł": 259,
      "Ń": 260,
      "ä¸": 261,
      "ãĢ": 262,
      "çļ": 263,
      "çļĦ": 264,
      "äº": 265,
      "ãĢĤ": 266,
      "æľ": 267,
      "åı": 268,
      "åħ": 269,
      "ä»": 270,
      "ãĢģ": 271,
      "å¤": 272,
      "å®": 273,
      "åĪ": 274,
      "ä½": 275,
      "è¿": 276,
      "çĶ": 277,
      "åľ": 278,
      "åĲ": 279,
      "åĬ": 280,
      "æĺ": 281,
      "ç»": 282,
      "åĽ": 283,
      "æĸ": 284,
      "æĪ": 285,
      "ä¹": 286,
      "ä¼": 287,
      "ä¸Ģ": 288,
      "å¹": 289,
      "å°": 290,
      "æĺ¯": 291,
      "åŃ": 292,
      "è®": 293,
      "æĹ": 294,
      "âĢ": 295,
      "åį": 296,
      "è¯": 297,
      "æľī": 298,
      "å·": 299,
      "åľ¨": 300,
      "éĩ": 301,
      "æĿ": 302,
      "äºº": 303,
      "åĮ": 304,
      "ä¸į": 305,
      "å¸": 306,
      "åº": 307,
      "ä¸Ń": 308,
      "å¼": 309,
      "æī": 310,
      "éĢ": 311,
      "åĴ": 312,
      "è¡": 313,
      "å¾": 314,
      "åĨ": 315,
      "èĢ": 316,
      "å¯": 317,
      "åĴĮ": 318,
      "äºĨ": 319,
      "åĩ": 320,
      "æķ": 321,
      "å±": 322,
      "ĥ½": 323,
      "æĢ": 324,
      "å¤§": 325,
      "çĽ": 326,
      "æĬ": 327,
      "è´": 328,
      "ç§": 329,
      "ä¸º": 330,
      "æ°": 331,
      "åĽ½": 332,
      "æł": 333,
      "è§": 334,
      "çĶŁ": 335,
      "èµ": 336,
      "ä¸ļ": 337,
      "çİ": 338,
      "çī": 339,
      "è¦": 340,
      "å¥": 341,
      "ä»¥": 342,
      "æĶ": 343,
      "éĻ": 344,
      "å¿": 345,
      "è¦ģ": 346,
      "åŃ¦": 347,
      "éĿ": 348,
      "åıĳ": 349,
      "å¹´": 350,
      "èĩ": 351,
      "ä¼ļ": 352,
      "æŃ": 353,
      "åİ": 354,
      "çĶ¨": 355,
      "çŃ": 356,
      "çĲ": 357,
      "æ³": 358,
      "å½": 359,
      "ä¿": 360,
      "èĥ½": 361,
      "æ²": 362,
      "ä¸Ĭ": 363,
      "éĹ": 364,
      "ä½ľ": 365,
      "å·¥": 366,
      "çº": 367,
      "åĳ": 368,
      "æİ": 369,
      "æµ": 370,
      "æŀ": 371,
      "æĹ¶": 372,
      "ä¸ª": 373,
      "âĢľ": 374,
      "âĢĿ": 375,
      "æĪĲ": 376,
      "åĵ": 377,
      "è¿Ļ": 378,
      "è¡Į": 379,
      "åı¯": 380,
      "é¢": 381,
      "æĪĳ": 382,
      "åĪ°": 383,
      "æ¯": 384,
      "å¯¹": 385,
      "åĩº": 386,
      "åŁ": 387,
      "æĮ": 388,
      "è¾": 389,
      "é«": 390,
      "æĥ": 391,
      "éĺ": 392,
      "å®¶": 393,
      "äºİ": 394,
      "çľ": 395,
      "çĲĨ": 396,
      "èĤ": 397,
      "é«ĺ": 398,
      "åī": 399,
      "äº§": 400,
      "æĿ¥": 401,
      "åĮĸ": 402,
      "å¤ļ": 403,
      "åľ°": 404,
      "æ±": 405,
      "çŃī": 406,
      "æĦ": 407,
      "æĭ": 408,
      "æĸ¹": 409,
      "åĬĽ": 410,
      "åĪĨ": 411,
      "åħ¨": 412,
      "è½": 413,
      "éģ": 414,
      "èĩª": 415,
      "è¿Ľ": 416,
      "æĸ°": 417,
      "æĢ§": 418,
      "ä½ĵ": 419,
      "å»": 420,
      "ä¾": 421,
      "ç®": 422,
      "åĬ¨": 423,
      "ç«": 424,
      "æ´": 425,
      "ç»ı": 426,
      "å®ŀ": 427,
      "åħ¬": 428,
      "ä¹Ł": 429,
      "æ¸": 430,
      "ä»¬": 431,
      "è¿ĩ": 432,
      "çİ°": 433,
      "éĥ": 434,
      "å¦": 435,
      "å°±": 436,
      "ç¨": 437,
      "åĲİ": 438,
      "åĲĪ": 439,
      "éķ": 440,
      "å±ķ": 441,
      "ä¸»": 442,
      "åģ": 443,
      "çĻ": 444,
      "ä¸ĭ": 445,
      "é£": 446,
      "çĤ": 447,
      "æı": 448,
      "æ¬": 449,
      "éĿ¢": 450,
      "æĽ": 451,
      "éĩį": 452,
      "åĵģ": 453,
      "ä»ĸ": 454,
      "å»º": 455,
      "èī": 456,
      "åĲĮ": 457,
      "æľº": 458,
      "å®ļ": 459,
      "éĥ¨": 460,
      "å¥½": 461,
      "ç½": 462,
      "ä¸İ": 463,
      "åĬł": 464,
      "é¡": 465,
      "å¿ĥ": 466,
      "è®¾": 467,
      "å¸Ĥ": 468,
      "ä¹ĭ": 469,
      "åº¦": 470,
      "æ°´": 471,
      "æ³ķ": 472,
      "èģ": 473,
      "ç¤": 474,
      "èĢĮ": 475,
      "å¼Ģ": 476,
      "éĽ": 477,
      "åŃĲ": 478,
      "çĹ": 479,
      "å¢": 480,
      "æĻ": 481,
      "æľ¬": 482,
      "åĪ¶": 483,
      "åħ¶": 484,
      "20": 485,
      "éĩı": 486,
      "å¾Ĺ": 487,
      "åĢ": 488,
      "èĢħ": 489,
      "è¶": 490,
      "çĸ": 491,
      "éķ¿": 492,
      "è·": 493,
      "ç¬": 494,
      "æıĲ": 495,
      "ç¾": 496,
      "çī©": 497,
      "çŁ": 498,
      "å¦Ĥ": 499,
      "åĿ": 500,
      "è°": 501,
      "æĹ¥": 502,
      "åĬ¡": 503,
      "åıĬ": 504,
      "æīĢ": 505,
      "åħ³": 506,
      "åīį": 507,
      "ä¿Ŀ": 508,
      "äºĭ": 509,
      "æ¶": 510,
      "ç®¡": 511,
      "éļ": 512,
      "éĢļ": 513,
      "çĶµ": 514,
      "æį": 515,
      "çĿ": 516,
      "éĥ½": 517,
      "åºĶ": 518,
      "åĨħ": 519,
      "ç³": 520,
      "æķĻ": 521,
      "åľº": 522,
      "æľĪ": 523,
      "ç§į": 524,
      "å§": 525,
      "çł": 526,
      "å°ı": 527,
      "èĬ": 528,
      "æĸĩ": 529,
      "ç©": 530,
      "çķ": 531,
      "åĽł": 532,
      "ç²": 533,
      "æĥħ": 534,
      "çĦ": 535,
      "ç´": 536,
      "èµĦ": 537,
      "åĮº": 538,
      "èĲ": 539,
      "å¤ĸ": 540,
      "æľĢ": 541,
      "æĬĢ": 542,
      "ç§ĳ": 543,
      "å¹³": 544,
      "æŁ": 545,
      "ç¨ĭ": 546,
      "éħ": 547,
      "æĽ´": 548,
      "åıĳå±ķ": 549,
      "æ°ĳ": 550,
      "å¤©": 551,
      "çĥ": 552,
      "æľ¯": 553,
      "éľ": 554,
      "çĽ®": 555,
      "éĹ´": 556,
      "çĽ¸": 557,
      "è´¨": 558,
      "æĦı": 559,
      "ä½į": 560,
      "åĳĺ": 561,
      "ä¸ŃåĽ½": 562,
      "åħ¥": 563,
      "å·¥ä½ľ": 564,
      "å°Ĩ": 565,
      "å¸¸": 566,
      "æľŁ": 567,
      "ç¡": 568,
      "æ¯Ķ": 569,
      "ä»£": 570,
      "è¡¨": 571,
      "çĤ¹": 572,
      "ç³»": 573,
      "å®ī": 574,
      "Ĥ£": 575,
      "æĶ¿": 576,
      "ç±": 577,
      "ä½¿": 578,
      "å¾Ī": 579,
      "è¯´": 580,
      "èĥ": 581,
      "ç¬¬": 582,
      "å¼º": 583,
      "ä¸ī": 584,
      "åı¸": 585,
      "éĶ": 586,
      "æ·": 587,
      "è¿ĺ": 588,
      "éĩĳ": 589,
      "ä¼ģ": 590,
      "éģĵ": 591,
      "çī¹": 592,
      "å½ĵ": 593,
      "æŀľ": 594,
      "æ´»": 595,
      "èµ·": 596,
      "ä»İ": 597,
      "èį": 598,
      "æ²»": 599,
      "å¹¶": 600,
      "ç¥": 601,
      "èĪ": 602,
      "æ¬¡": 603,
      "åı¯ä»¥": 604,
      "æģ": 605,
      "åĪ©": 606,
      "æĺİ": 607,
      "çĿĢ": 608,
      "æŃ¤": 609,
      "çĦ¶": 610,
      "åŁº": 611,
      "ä½Ĩ": 612,
      "ãĢĭ": 613,
      "ä¸ĵ": 614,
      "ä¿¡": 615,
      "ãĢĬ": 616,
      "ç¾İ": 617,
      "åĲĦ": 618,
      "æĪĳä»¬": 619,
      "åħ¬åı¸": 620,
      "éĴ": 621,
      "åĲį": 622,
      "ä¼ģä¸ļ": 623,
      "æķ°": 624,
      "é£İ": 625,
      "è®¡": 626,
      "æĪĸ": 627,
      "éĻ¢": 628,
      "æĮģ": 629,
      "æľį": 630,
      "éĵ": 631,
      "èĭ": 632,
      "æĹł": 633,
      "å¼ı": 634,
      "äºĽ": 635,
      "ä¸Ģä¸ª": 636,
      "çĹħ": 637,
      "ä½ł": 638,
      "èĤ²": 639,
      "é¦": 640,
      "çģ": 641,
      "æŃ£": 642,
      "è§£": 643,
      "åħļ": 644,
      "è§Ħ": 645,
      "ç»ĵ": 646,
      "æº": 647,
      "ç¼": 648,
      "è£": 649,
      "è¢": 650,
      "èī²": 651,
      "éĢł": 652,
      "ç»Ł": 653,
      "åĮ»": 654,
      "æ¡": 655,
      "å¯¼": 656,
      "åŀ": 657,
      "èº": 658,
      "åķ": 659,
      "éľĢ": 660,
      "ä»»": 661,
      "å£": 662,
      "äºĮ": 663,
      "åĸ": 664,
      "ç¤¾": 665,
      "é¢ĺ": 666,
      "çĪ": 667,
      "åĪĽ": 668,
      "èĦ": 669,
      "åģļ": 670,
      "åħ·": 671,
      "éĩĮ": 672,
      "æ±Ĥ": 673,
      "00": 674,
      "æ°Ķ": 675,
      "æµģ": 676,
      "é¡¹": 677,
      "çľĭ": 678,
      "åįģ": 679,
      "çłĶ": 680,
      "å¢ŀ": 681,
      "æĦŁ": 682,
      "ç«ĭ": 683,
      "ç¦": 684,
      "èº«": 685,
      "è¿Ĳ": 686,
      "æį®": 687,
      "å¤Ħ": 688,
      "åħĥ": 689,
      "çĶ±": 690,
      "æķĪ": 691,
      "æĥ³": 692,
      "æİ¥": 693,
      "è½¦": 694,
      "æłĩ": 695,
      "ç²¾": 696,
      "éĹ®": 697,
      "åİ»": 698,
      "æł¡": 699,
      "ç»Ħ": 700,
      "æīĭ": 701,
      "ä¹Ī": 702,
      "èĮ": 703,
      "å·±": 704,
      "ä¼ł": 705,
      "æł·": 706,
      "åĲĳ": 707,
      "ç½ĳ": 708,
      "è¢«": 709,
      "éĹ¨": 710,
      "åİŁ": 711,
      "æĬĢæľ¯": 712,
      "çĻ½": 713,
      "ä»¶": 714,
      "æĸĻ": 715,
      "çĲĥ": 716,
      "æĢ»": 717,
      "è¥": 718,
      "æ»": 719,
      "å·²": 720,
      "åıĹ": 721,
      "é¢Ĩ": 722,
      "æ²¡": 723,
      "éª": 724,
      "èĩªå·±": 725,
      "æµ·": 726,
      "è¥¿": 727,
      "è·¯": 728,
      "å¤ĩ": 729,
      "äº¤": 730,
      "çº§": 731,
      "åħ±": 732,
      "å½¢": 733,
      "å½±": 734,
      "åķĨ": 735,
      "åŀĭ": 736,
      "æł¼": 737,
      "çİ¯": 738,
      "çŁ¥": 739,
      "ä¸¤": 740,
      "çľģ": 741,
      "é»": 742,
      "åıĺ": 743,
      "åĽ½å®¶": 744,
      "æľįåĬ¡": 745,
      "é©": 746,
      "åħĪ": 747,
      "å°ĳ": 748,
      "æĶ¹": 749,
      "ç±»": 750,
      "ä¼ĺ": 751,
      "æİ¨": 752,
      "ä¸ĩ": 753,
      "ç®¡çĲĨ": 754,
      "éĺŁ": 755,
      "éĽĨ": 756,
      "èģĶ": 757,
      "æ£": 758,
      "åįķ": 759,
      "åĻ": 760,
      "è°ĥ": 761,
      "èİ": 762,
      "è¿Ľè¡Į": 763,
      "ä¹ł": 764,
      "å±±": 765,
      "èĩ³": 766,
      "éĤ£": 767,
      "éĺ²": 768,
      "æ·±": 769,
      "å¸Ī": 770,
      "çĸĹ": 771,
      "æ¢": 772,
      "ç¤º": 773,
      "æĶ¶": 774,
      "å¹¿": 775,
      "æºĲ": 776,
      "ä¸ĸ": 777,
      "é£Ł": 778,
      "æĬ¥": 779,
      "åıª": 780,
      "äº§åĵģ": 781,
      "è¾ĥ": 782,
      "åįĹ": 783,
      "æŀĦ": 784,
      "æ®": 785,
      "å®Į": 786,
      "èĻ": 787,
      "æĶ¾": 788,
      "æĮĩ": 789,
      "å»ºè®¾": 790,
      "ä¾Ľ": 791,
      "åıĸ": 792,
      "ä¸ľ": 793,
      "èµĽ": 794,
      "æīį": 795,
      "è®¤": 796,
      "ç¤¾ä¼ļ": 797,
      "æĸ½": 798,
      "åĻ¨": 799,
      "åı£": 800,
      "æ¨": 801,
      "è¾¾": 802,
      "ä¹¦": 803,
      "èĲ¥": 804,
      "éĢī": 805,
      "åŁİ": 806,
      "èĬĤ": 807,
      "æ³¨": 808,
      "è®°": 809,
      "æ¼": 810,
      "çº¿": 811,
      "èĢģ": 812,
      "çĥŃ": 813,
      "å¸¦": 814,
      "åĮĹ": 815,
      "è®©": 816,
      "éĿŀ": 817,
      "ç¥ŀ": 818,
      "åĽĽ": 819,
      "æĪĺ": 820,
      "å®¹": 821,
      "è¿ĳ": 822,
      "è£ħ": 823,
      "ä»·": 824,
      "è¯ģ": 825,
      "çķĮ": 826,
      "èĢĥ": 827,
      "åĪ«": 828,
      "ç¡®": 829,
      "æ¯ı": 830,
      "éĹ®é¢ĺ": 831,
      "åħī": 832,
      "ç´ł": 833,
      "æķĻèĤ²": 834,
      "åĩĨ": 835,
      "å²": 836,
      "æµİ": 837,
      "æĿ¡": 838,
      "åĽ¢": 839,
      "å§Ķ": 840,
      "åı°": 841,
      "åĨ³": 842,
      "èħ": 843,
      "æĬ¤": 844,
      "è±": 845,
      "çĬ": 846,
      "æĺĵ": 847,
      "åĬŁ": 848,
      "å¢ĥ": 849,
      "æīĵ": 850,
      "å¥³": 851,
      "çĽ´": 852,
      "æŃ¥": 853,
      "æķ´": 854,
      "æ²¡æľī": 855,
      "ä½İ": 856,
      "åĶ": 857,
      "äºĶ": 858,
      "æĢĿ": 859,
      "çħ": 860,
      "æĬĬ": 861,
      "æĶ¯": 862,
      "çľŁ": 863,
      "201": 864,
      "åĽŀ": 865,
      "æ¸ħ": 866,
      "åħ»": 867,
      "è§Ĥ": 868,
      "ç©º": 869,
      "ä¹ī": 870,
      "ç©¶": 871,
      "ç»Ļ": 872,
      "å±Ģ": 873,
      "çĶŁäº§": 874,
      "èģĮ": 875,
      "æĬķ": 876,
      "åĬŀ": 877,
      "å¤´": 878,
      "éĻħ": 879,
      "åĭ": 880,
      "ç»ıæµİ": 881,
      "åĮħ": 882,
      "å®ĥ": 883,
      "è§Ĩ": 884,
      "ä½¿çĶ¨": 885,
      "æĪ·": 886,
      "è´¹": 887,
      "å¼ķ": 888,
      "æ¶Ī": 889,
      "éľĢè¦ģ": 890,
      "æĿĲ": 891,
      "åĬ©": 892,
      "å¸Ĥåľº": 893,
      "æģ¯": 894,
      "èį¯": 895,
      "ç§¯": 896,
      "çİĩ": 897,
      "è¨": 898,
      "åıĤ": 899,
      "ç»´": 900,
      "æł¹": 901,
      "è¯¥": 902,
      "é¥": 903,
      "Ġ,": 904,
      "å¤į": 905,
      "å¿«": 906,
      "éĢļè¿ĩ": 907,
      "è¯Ĩ": 908,
      "å°±æĺ¯": 909,
      "èĩ´": 910,
      "ä»Ĭ": 911,
      "è®®": 912,
      "éĩįè¦ģ": 913,
      "å¸ĥ": 914,
      "åĨį": 915,
      "æĸ¯": 916,
      "å®¢": 917,
      "èı": 918,
      "æŁ¥": 919,
      "éĢŁ": 920,
      "çı": 921,
      "æĢģ": 922,
      "åįĩ": 923,
      "åĦ": 924,
      "è®º": 925,
      "ä¸ĵä¸ļ": 926,
      "æĤ£": 927,
      "æŀģ": 928,
      "è½¬": 929,
      "å®īåħ¨": 930,
      "æĤ": 931,
      "çłĶç©¶": 932,
      "è§ģ": 933,
      "è´£": 934,
      "å¿ħ": 935,
      "èĬ±": 936,
      "çĶŁæ´»": 937,
      "åĿļ": 938,
      "åįİ": 939,
      "éªĮ": 940,
      "æĸŃ": 941,
      "éŁ": 942,
      "åıį": 943,
      "éĻĲ": 944,
      "10": 945,
      "è¶Ĭ": 946,
      "åĵį": 947,
      "å¾·": 948,
      "åİĨ": 949,
      "å¦Ĥæŀľ": 950,
      "å¹²": 951,
      "ç»Ń": 952,
      "æİ§": 953,
      "åĨµ": 954,
      "å¡": 955,
      "åĳ½": 956,
      "ä¸»è¦ģ": 957,
      "è¶³": 958,
      "æħ": 959,
      "åģ¥": 960,
      "çĪ±": 961,
      "æ¸¸": 962,
      "æĹ¶éĹ´": 963,
      "æ¹": 964,
      "èĳ": 965,
      "è¯Ŀ": 966,
      "çĭ": 967,
      "åĨĽ": 968,
      "æĸĩåĮĸ": 969,
      "æ¨¡": 970,
      "æ£Ģ": 971,
      "æĿĥ": 972,
      "ä¸Ķ": 973,
      "ä»ĸä»¬": 974,
      "ä½ķ": 975,
      "èĮĥ": 976,
      "éĢĤ": 977,
      "ç¢": 978,
      "çļĦäºº": 979,
      "åŁŁ": 980,
      "è¶ħ": 981,
      "èİ·": 982,
      "è¯ķ": 983,
      "æ¸©": 984,
      "èŀ": 985,
      "å·ŀ": 986,
      "åĪĻ": 987,
      "é¦ĸ": 988,
      "éĩĩ": 989,
      "æĸ¹éĿ¢": 990,
      "é¡¹çĽ®": 991,
      "åĢ¼": 992,
      "åĨľ": 993,
      "å§ĭ": 994,
      "åĳĬ": 995,
      "èīº": 996,
      "ç§°": 997,
      "æİĴ": 998,
      "éļ¾": 999,
      "åº·": 1000,
      "åĬ¿": 1001,
      "åİĭ": 1002,
      "çª": 1003,
      "æľª": 1004,
      "ä»Ģ": 1005,
      "åĳ¨": 1006,
      "è¡Ģ": 1007,
      "æ¡Ī": 1008,
      "åŃĹ": 1009,
      "æ²¹": 1010,
      "å·¥ç¨ĭ": 1011,
      "åħĭ": 1012,
      "çĬ¶": 1013,
      "ç»ĩ": 1014,
      "åĦ¿": 1015,
      "âĢĿ,": 1016,
      "åıĪ": 1017,
      "åı²": 1018,
      "æĺ¾": 1019,
      "åŃĺ": 1020,
      "ä¸¥": 1021,
      "åŁ¹": 1022,
      "ç³»ç»Ł": 1023,
      "æ±Ł": 1024,
      "æµĭ": 1025,
      "éħį": 1026,
      "19": 1027,
      "åħ·æľī": 1028,
      "æ²»çĸĹ": 1029,
      "éĻ¤": 1030,
      "ä¸ĸçķĮ": 1031,
      "åı¯èĥ½": 1032,
      "æıĲä¾Ľ": 1033,
      "å½±åĵį": 1034,
      "ä¹Ĳ": 1035,
      "ä¾¿": 1036,
      "é©¬": 1037,
      "è¿Ļä¸ª": 1038,
      "ä¼Ĺ": 1039,
      "åĢĻ": 1040,
      "åįı": 1041,
      "æĪ¿": 1042,
      "å¥¹": 1043,
      "âĢĶ": 1044,
      "è¦ģæ±Ĥ": 1045,
      "åĪĴ": 1046,
      "äººæ°ĳ": 1047,
      "çļ®": 1048,
      "åŃ¦çĶŁ": 1049,
      "åŃ¦ä¹ł": 1050,
      "ç»Ĩ": 1051,
      "ä»Ģä¹Ī": 1052,
      "å¥½çļĦ": 1053,
      "è®¾è®¡": 1054,
      "è¡Įä¸ļ": 1055,
      "çİ¯å¢ĥ": 1056,
      "åĪĩ": 1057,
      "è´¨éĩı": 1058,
      "éĿĴ": 1059,
      "èĲ½": 1060,
      "ç«Ļ": 1061,
      "æĥħåĨµ": 1062,
      "ç±³": 1063,
      "åĲĮæĹ¶": 1064,
      "çĮ": 1065,
      "çīĩ": 1066,
      "åľŁ": 1067,
      "å±Ĥ": 1068,
      "æľĽ": 1069,
      "çº¦": 1070,
      "çĽĳ": 1071,
      "äº§ä¸ļ": 1072,
      "ãĢĤâĢĿ": 1073,
      "å°Ķ": 1074,
      "äº¬": 1075,
      "èĥ½åĬĽ": 1076,
      "åĽłä¸º": 1077,
      "å£«": 1078,
      "èŀį": 1079,
      "æ¥": 1080,
      "åį³": 1081,
      "çİĭ": 1082,
      "æļ": 1083,
      "åĪĽæĸ°": 1084,
      "æīĢä»¥": 1085,
      "çģ«": 1086,
      "å¼ł": 1087,
      "å±ŀ": 1088,
      "æĴ": 1089,
      "èµ°": 1090,
      "çŁ³": 1091,
      "å¤±": 1092,
      "éĻį": 1093,
      "æ¼Ķ": 1094,
      "çħ§": 1095,
      "è®¾å¤ĩ": 1096,
      "è±¡": 1097,
      "åĩł": 1098,
      "é¾": 1099,
      "æ´»åĬ¨": 1100,
      "ä»¥åıĬ": 1101,
      "æĳ": 1102,
      "å¤ª": 1103,
      "éĿ©": 1104,
      "æĺ¯ä¸Ģ": 1105,
      "åĸĦ": 1106,
      "åħħ": 1107,
      "éļı": 1108,
      "é¢Ħ": 1109,
      "æī¿": 1110,
      "æıĲé«ĺ": 1111,
      "æĿĳ": 1112,
      "çº¢": 1113,
      "ç¦»": 1114,
      "éĶĢ": 1115,
      "ç»Ħç»ĩ": 1116,
      "åºľ": 1117,
      "åĥ": 1118,
      "æŀĹ": 1119,
      "æ»¡": 1120,
      "æĤ£èĢħ": 1121,
      "ä¿¡æģ¯": 1122,
      "å¾Ģ": 1123,
      "åħį": 1124,
      "æ®µ": 1125,
      "å¯Į": 1126,
      "æł¸": 1127,
      "èī¯": 1128,
      "çļĦä¸Ģ": 1129,
      "çĻ¾": 1130,
      "ä»ħ": 1131,
      "å¨": 1132,
      "ä½ľä¸º": 1133,
      "çĽĬ": 1134,
      "åĪĹ": 1135,
      "æĵ": 1136,
      "æ¿": 1137,
      "ç½®": 1138,
      "ä¸įåĲĮ": 1139,
      "æĻº": 1140,
      "åŃ©": 1141,
      "å¤§çļĦ": 1142,
      "éĻ©": 1143,
      "ä¾ĭ": 1144,
      "éĤ": 1145,
      "çŃĸ": 1146,
      "å®¤": 1147,
      "æĻ¯": 1148,
      "ä¾Ŀ": 1149,
      "åł": 1150,
      "å¤Ł": 1151,
      "çīĮ": 1152,
      "ä¸Ńå¿ĥ": 1153,
      "æĿ¿": 1154,
      "åŃ¦æł¡": 1155,
      "ç²¾ç¥ŀ": 1156,
      "ä½ľçĶ¨": 1157,
      "åĩı": 1158,
      "äº¿": 1159,
      "è¯Ħ": 1160,
      "è´Ł": 1161,
      "äºļ": 1162,
      "è¨Ģ": 1163,
      "äººåĳĺ": 1164,
      "æĪĲä¸º": 1165,
      "äºī": 1166,
      "äººçļĦ": 1167,
      "åĽ´": 1168,
      "å¾Īå¤ļ": 1169,
      "è¿Ļæł·": 1170,
      "ä¸ŃçļĦ": 1171,
      "åı·": 1172,
      "åĽ½éĻħ": 1173,
      "åĽŃ": 1174,
      "æĲ": 1175,
      "è®¸": 1176,
      "ä½ı": 1177,
      "éĺ³": 1178,
      "å¿µ": 1179,
      "ç¾¤": 1180,
      "ä¹Łæĺ¯": 1181,
      "ä¿®": 1182,
      "å¿Ĺ": 1183,
      "åıĭ": 1184,
      "æĶ¿åºľ": 1185,
      "åĽ¾": 1186,
      "éĿŀå¸¸": 1187,
      "åĲ«": 1188,
      "æ²³": 1189,
      "æĮī": 1190,
      "æĭ©": 1191,
      "æĹ©": 1192,
      "èª": 1193,
      "ä»½": 1194,
      "åĲĥ": 1195,
      "åĩºçİ°": 1196,
      "è¿ŀ": 1197,
      "å¾ĭ": 1198,
      "çĹĩ": 1199,
      "å®ŀçİ°": 1200,
      "âĢĿãĢĤ": 1201,
      "èĤ¡": 1202,
      "ç¬¬ä¸Ģ": 1203,
      "ç»Ī": 1204,
      "åıĮ": 1205,
      "åĿĩ": 1206,
      "è¿ľ": 1207,
      "æĭī": 1208,
      "éħĴ": 1209,
      "è¯Ń": 1210,
      "ç§ĳæĬĢ": 1211,
      "åİ¿": 1212,
      "äºĴ": 1213,
      "ç®Ĺ": 1214,
      "å·²ç»ı": 1215,
      "è¿ĻäºĽ": 1216,
      "åĲĪä½ľ": 1217,
      "ç§ĳåŃ¦": 1218,
      "å¯Ĩ": 1219,
      "åı¤": 1220,
      "ä¸ĢäºĽ": 1221,
      "é»Ħ": 1222,
      "çĽ¸åħ³": 1223,
      "æ¿Ģ": 1224,
      "å¯¹äºİ": 1225,
      "åģ¥åº·": 1226,
      "ä¸Ģå®ļ": 1227,
      "èĩªå·±çļĦ": 1228,
      "åħ¨åĽ½": 1229,
      "éĢīæĭ©": 1230,
      "è§Ĵ": 1231,
      "è®²": 1232,
      "æĻ®": 1233,
      "çĨ": 1234,
      "å¤§åŃ¦": 1235,
      "æĹ¶åĢĻ": 1236,
      "å®³": 1237,
      "è§ī": 1238,
      "èĪ¬": 1239,
      "å¤ĦçĲĨ": 1240,
      "åħ´": 1241,
      "åĤ": 1242,
      "ä¸įæĺ¯": 1243,
      "æĿĲæĸĻ": 1244,
      "è´¢": 1245,
      "æŁĵ": 1246,
      "éŁ³": 1247,
      "ä½Ĩæĺ¯": 1248,
      "è¯·": 1249,
      "12": 1250,
      "åŃ©åŃĲ": 1251,
      "è¿ĩç¨ĭ": 1252,
      "ä¸įæĸŃ": 1253,
      "æĬķèµĦ": 1254,
      "è®Ń": 1255,
      "åħ¶ä»ĸ": 1256,
      "åĥı": 1257,
      "åĽłæŃ¤": 1258,
      "æł¹æį®": 1259,
      "éĴ¢": 1260,
      "çĽ®åīį": 1261,
      "åĪ°äºĨ": 1262,
      "å¾®": 1263,
      "ĠãĢĤ": 1264,
      "æĿİ": 1265,
      "åŁºç¡": 1266,
      "æī¹": 1267,
      "æķħ": 1268,
      "å©": 1269,
      "çŃĳ": 1270,
      "æĹı": 1271,
      "ä»¥ä¸Ĭ": 1272,
      "éħ¸": 1273,
      "åŁºç¡Ģ": 1274,
      "åĪĿ": 1275,
      "èĭ±": 1276,
      "åĲ¸": 1277,
      "ä¸įèĥ½": 1278,
      "åĶ®": 1279,
      "é¡»": 1280,
      "æĸ¹å¼ı": 1281,
      "åıĳçĶŁ": 1282,
      "çľ¼": 1283,
      "è½»": 1284,
      "ç¦ı": 1285,
      "æķ°æį®": 1286,
      "åŁİå¸Ĥ": 1287,
      "éĵ¶": 1288,
      "èŃ": 1289,
      "æľ¨": 1290,
      "çĶ·": 1291,
      "è¡¨ç¤º": 1292,
      "ç¨³": 1293,
      "åī¯": 1294,
      "éĥ¨åĪĨ": 1295,
      "æłĩåĩĨ": 1296,
      "çĵ": 1297,
      "ä¸¾": 1298,
      "æ¤": 1299,
      "é¦Ļ": 1300,
      "åĮ»éĻ¢": 1301,
      "èĨ": 1302,
      "åŃ£": 1303,
      "å¤§å®¶": 1304,
      "å±ħ": 1305,
      "éĥ¨éĹ¨": 1306,
      "éĵģ": 1307,
      "æŃ¢": 1308,
      "åįķä½į": 1309,
      "æ¬¾": 1310,
      "å°½": 1311,
      "200": 1312,
      "æĭ¬": 1313,
      "åºĶçĶ¨": 1314,
      "çıŃ": 1315,
      "åİĤ": 1316,
      "åĳ³": 1317,
      "åħ¶ä¸Ń": 1318,
      "åīĤ": 1319,
      "éĥ½æĺ¯": 1320,
      "è¾¹": 1321,
      "æ±½": 1322,
      "è¯¾": 1323,
      "çĸ«": 1324,
      "çļĦæĺ¯": 1325,
      "åį«": 1326,
      "èµĦæºĲ": 1327,
      "èĥ½å¤Ł": 1328,
      "ä¼¤": 1329,
      "å¼Ģå§ĭ": 1330,
      "è¾ĵ": 1331,
      "ç®Ģ": 1332,
      "å£°": 1333,
      "çķ¥": 1334,
      "11": 1335,
      "åºķ": 1336,
      "ä¸ĢèĪ¬": 1337,
      "ä»ĭ": 1338,
      "çºª": 1339,
      "ç£": 1340,
      "æĬĹ": 1341,
      "å·¥ä¸ļ": 1342,
      "éļľ": 1343,
      ":âĢľ": 1344,
      "æľīéĻĲ": 1345,
      "èģļ": 1346,
      "åİĨåı²": 1347,
      "æĸ¹æ³ķ": 1348,
      "è¡¥": 1349,
      "çªģ": 1350,
      "åįĬ": 1351,
      "ä¸»ä¹ī": 1352,
      "å»ºçŃĳ": 1353,
      "å¥ĸ": 1354,
      "èĴ": 1355,
      "å®Ŀ": 1356,
      "åħ¨éĿ¢": 1357,
      "çĻľ": 1358,
      "çł´": 1359,
      "å®£": 1360,
      "çĻľé£İ": 1361,
      "é²": 1362,
      "çĻ½çĻľé£İ": 1363,
      "åĮħæĭ¬": 1364,
      "æ½": 1365,
      "æ¶²": 1366,
      "åħ«": 1367,
      "ä¿ĥ": 1368,
      "æĭħ": 1369,
      "å®ĺ": 1370,
      "ç½Ĺ": 1371,
      "åĸľ": 1372,
      "äº²": 1373,
      "å¸Į": 1374,
      "ç¾İåĽ½": 1375,
      "åĬŁèĥ½": 1376,
      "æ°´å¹³": 1377,
      "éĽĨåĽ¢": 1378,
      "çĩ": 1379,
      "å¼Ģå±ķ": 1380,
      "æľºæŀĦ": 1381,
      "æĽ¾": 1382,
      "è¿Ļç§į": 1383,
      "ç¼º": 1384,
      "èİ·å¾Ĺ": 1385,
      "å®¡": 1386,
      "åį´": 1387,
      "çĶ±äºİ": 1388,
      "åľ°åĮº": 1389,
      "æĹħ": 1390,
      "æĺŁ": 1391,
      "ç§¯æŀģ": 1392,
      "æ¯Ĵ": 1393,
      "åĨ·": 1394,
      "ç¿": 1395,
      "åħŃ": 1396,
      "é¢ĨåŁŁ": 1397,
      "æĺ¥": 1398,
      "ä»£è¡¨": 1399,
      "ĠãĢģ": 1400,
      "åį°": 1401,
      "æŀĲ": 1402,
      "å¿ħé¡»": 1403,
      "é¾Ļ": 1404,
      "çİ°åľ¨": 1405,
      "å·®": 1406,
      "åĿļæĮģ": 1407,
      "æ³¨æĦı": 1408,
      "éĨ": 1409,
      "çĶ»": 1410,
      "èĹ": 1411,
      "ä¿ĿæĬ¤": 1412,
      "å¸®": 1413,
      "æĪĸèĢħ": 1414,
      "æĪĳåĽ½": 1415,
      "åĮĹäº¬": 1416,
      "30": 1417,
      "ç»ĵæŀĦ": 1418,
      "çĭ¬": 1419,
      "åı¦": 1420,
      "çķĻ": 1421,
      "15": 1422,
      "æ±¡": 1423,
      "åįļ": 1424,
      "ä¸´": 1425,
      "åĬłå¼º": 1426,
      "é¢Ĩå¯¼": 1427,
      "æĶ¹éĿ©": 1428,
      "å¢ŀéķ¿": 1429,
      "202": 1430,
      "ç¯": 1431,
      "å·´": 1432,
      "ä½Ļ": 1433,
      "æıĲåįĩ": 1434,
      "æī§": 1435,
      "åī§": 1436,
      "çĸ¾": 1437,
      "ä¸ĢæŃ¥": 1438,
      "ç»¼": 1439,
      "ç»§": 1440,
      "äºĳ": 1441,
      "å¢ŀåĬł": 1442,
      "ä¸°": 1443,
      "æ¯Ķè¾ĥ": 1444,
      "è´Ń": 1445,
      "é»ĳ": 1446,
      "ç´§": 1447,
      "é¸": 1448,
      "åĽº": 1449,
      "åįł": 1450,
      "è§Ħå®ļ": 1451,
      "ç¨İ": 1452,
      "äºĨè§£": 1453,
      "éĢģ": 1454,
      "æİ§åĪ¶": 1455,
      "æĹ¶ä»£": 1456,
      "éº": 1457,
      "åĬ³": 1458,
      "å¾ħ": 1459,
      "å¼Ĥ": 1460,
      "å¾ģ": 1461,
      "æ¹ĸ": 1462,
      "å½¢æĪĲ": 1463,
      "åŁºæľ¬": 1464,
      "å®ĮæĪĲ": 1465,
      "èĳĹ": 1466,
      "çİ°ä»£": 1467,
      "æĶ¿çŃĸ": 1468,
      "ç¬¬äºĮ": 1469,
      "åįĥ": 1470,
      "å¤®": 1471,
      "åħ³ç³»": 1472,
      "åºĹ": 1473,
      "æ¯į": 1474,
      "ä¸įä¼ļ": 1475,
      "æ¸¯": 1476,
      "ä¹¡": 1477,
      "æ¬¢": 1478,
      "å¹´çļĦ": 1479,
      "å®¢æĪ·": 1480,
      "å¹³åı°": 1481,
      "æįŁ": 1482,
      "èĭı": 1483,
      "è¿ĺæĺ¯": 1484,
      "æŃ¦": 1485,
      "åĪ»": 1486,
      "åº§": 1487,
      "æ¦": 1488,
      "é¥®": 1489,
      "çĤİ": 1490,
      "ä¸ªäºº": 1491,
      "ç»¿": 1492,
      "çĶ³": 1493,
      "åį¡": 1494,
      "åĪĨæŀĲ": 1495,
      "æ³¢": 1496,
      "åıĳçİ°": 1497,
      "çĤº": 1498,
      "è´£ä»»": 1499,
      "èĢĮä¸Ķ": 1500,
      "æĢĿæĥ³": 1501,
      "éĤ£ä¹Ī": 1502,
      "æľīéĻĲåħ¬åı¸": 1503,
      "èĢĲ": 1504,
      "åĨħå®¹": 1505,
      "æĶ¿æ²»": 1506,
      "åŃ¦éĻ¢": 1507,
      "åĵģçīĮ": 1508,
      "ç«ŀ": 1509,
      "çŁŃ": 1510,
      "ä¸ĬçļĦ": 1511,
      "å¯¼èĩ´": 1512,
      "åĲĦç§į": 1513,
      "æľīæķĪ": 1514,
      "è®¤ä¸º": 1515,
      "çº³": 1516,
      "å²ģ": 1517,
      "æłĳ": 1518,
      "æĮ¥": 1519,
      "ç»ıèĲ¥": 1520,
      "åı¥": 1521,
      "åĽ½åĨħ": 1522,
      "é¼": 1523,
      "åĪ¶éĢł": 1524,
      "èĪª": 1525,
      "éľĢæ±Ĥ": 1526,
      "ä¼łç»Ł": 1527,
      "æķĻåŃ¦": 1528,
      "èĮ¶": 1529,
      "è§£åĨ³": 1530,
      "æĸ°çļĦ": 1531,
      "äººæīį": 1532,
      "æĽ´åĬł": 1533,
      "è´§": 1534,
      "é¢Ŀ": 1535,
      "åĨł": 1536,
      "éģ¿": 1537,
      "åĪ©çĶ¨": 1538,
      "ç»¼åĲĪ": 1539,
      "æ±½è½¦": 1540,
      "å¯Ł": 1541,
      "åĩ»": 1542,
      ",âĢľ": 1543,
      "ä½ĵç³»": 1544,
      "äº§çĶŁ": 1545,
      "æī¾": 1546,
      "å¸ĮæľĽ": 1547,
      "èĥľ": 1548,
      "éķĩ": 1549,
      "æľĥ": 1550,
      "åħ°": 1551,
      "ç»ľ": 1552,
      "æŁĲ": 1553,
      "éĴŁ": 1554,
      "èĻ½": 1555,
      "æİ¨è¿Ľ": 1556,
      "å°Ħ": 1557,
      "æĿ¥çļĦ": 1558,
      "ä¸ºäºĨ": 1559,
      "ä¼ļè®®": 1560,
      "è¿Ļä¸Ģ": 1561,
      "ç»Ŀ": 1562,
      "åį±": 1563,
      "),": 1564,
      "åĲ¦": 1565,
      "çĽ®æłĩ": 1566,
      "ä¸ļåĬ¡": 1567,
      "éĩįçĤ¹": 1568,
      "èīºæľ¯": 1569,
      "ç§»": 1570,
      "å¼Ģåıĳ": 1571,
      "éĺ¿": 1572,
      "çŁ¥è¯Ĩ": 1573,
      "æĶ¯æĮģ": 1574,
      "æİ¨åĬ¨": 1575,
      "åĨĻ": 1576,
      "æ¤į": 1577,
      "çīĽ": 1578,
      "éĢłæĪĲ": 1579,
      "èıľ": 1580,
      "çĶ¨äºİ": 1581,
      "ä»¤": 1582,
      "æĭ¥": 1583,
      "äºĨä¸Ģ": 1584,
      "æ¬§": 1585,
      "çļĦæĹ¶åĢĻ": 1586,
      "å®ŀæĸ½": 1587,
      "åĲ¬": 1588,
      "æŃ»": 1589,
      "ç§Ģ": 1590,
      "è¯»": 1591,
      "å®¹æĺĵ": 1592,
      "åĪ¶åº¦": 1593,
      "æľīåħ³": 1594,
      "ç¼ĸ": 1595,
      "èĩªçĦ¶": 1596,
      "å½ķ": 1597,
      "åŃĺåľ¨": 1598,
      "æ°§": 1599,
      "æį¢": 1600,
      "é¢ĳ": 1601,
      "ä¹ĭåĲİ": 1602,
      "çĹĽ": 1603,
      "çīĪ": 1604,
      "æĦ¿": 1605,
      "æ´Ĺ": 1606,
      "éģĩ": 1607,
      "éĩĩçĶ¨": 1608,
      "çĸ¾çĹħ": 1609,
      "æīĢæľī": 1610,
      "æ¶Īè´¹": 1611,
      "åħļçļĦ": 1612,
      "ä¹¦è®°": 1613,
      "ç«ł": 1614,
      "åºŃ": 1615,
      "çī¹èī²": 1616,
      "åĵª": 1617,
      "çŁ¥éģĵ": 1618,
      "æ±ī": 1619,
      "ä¸įä»ħ": 1620,
      "æĩ": 1621,
      "ä¸Ńå¤®": 1622,
      "ä¿ĿæĮģ": 1623,
      "ç«¯": 1624,
      "æĿ¡ä»¶": 1625,
      "åĬª": 1626,
      "æĴŃ": 1627,
      "Â·": 1628,
      "çĮ®": 1629,
      "å¦Ĥä½ķ": 1630,
      "æĸĹ": 1631,
      "çī¹åĪ«": 1632,
      "æ¢¦": 1633,
      "éĢĲ": 1634,
      "æĪı": 1635,
      "ä»ª": 1636,
      "å±Ĭ": 1637,
      "æķĪæŀľ": 1638,
      "èģĮä¸ļ": 1639,
      "æĤ¨": 1640,
      "100": 1641,
      "åľ°æĸ¹": 1642,
      "å»ºç«ĭ": 1643,
      "èįī": 1644,
      "èĽ": 1645,
      "åºĶè¯¥": 1646,
      "è¾¾åĪ°": 1647,
      "çĶļ": 1648,
      "æĭĽ": 1649,
      "å¤«": 1650,
      "å®ŀéĻħ": 1651,
      "æĢİ": 1652,
      "æĵį": 1653,
      "åı³": 1654,
      "âĢĶâĢĶ": 1655,
      "è´Łè´£": 1656,
      "è¿ĺæľī": 1657,
      "å®Ī": 1658,
      "ç»ĵåĲĪ": 1659,
      "ä»į": 1660,
      "ç²ī": 1661,
      "è¿Ľä¸ĢæŃ¥": 1662,
      "ãĢĮ": 1663,
      "æĿ¥è¯´": 1664,
      "å·¦": 1665,
      "æĢ¥": 1666,
      "é£Łåĵģ": 1667,
      "çĶ²": 1668,
      "ä¸ĥ": 1669,
      "ä¹Ŀ": 1670,
      "åĮ»çĸĹ": 1671,
      "è²": 1672,
      "åĬªåĬĽ": 1673,
      "è¿°": 1674,
      "éĸ": 1675,
      "ä¸Ģèµ·": 1676,
      "é¡º": 1677,
      "ç½ĳç»ľ": 1678,
      "ä¹ħ": 1679,
      "ä¸įè¦ģ": 1680,
      "å½©": 1681,
      "åŁ¹åħ»": 1682,
      "åºĬ": 1683,
      "ä¸Ĭæµ·": 1684,
      "åİŁåĽł": 1685,
      "ãĢį": 1686,
      "è¯Ĭ": 1687,
      "åºı": 1688,
      "åıĸå¾Ĺ": 1689,
      "èº«ä½ĵ": 1690,
      "é£ŀ": 1691,
      "åĽ°": 1692,
      "èŃ¦": 1693,
      "ç»į": 1694,
      "è¿ĲåĬ¨": 1695,
      "50": 1696,
      "å¡ĳ": 1697,
      "åĩĢ": 1698,
      "æıĲåĩº": 1699,
      "æ´²": 1700,
      "æĻĤ": 1701,
      "åĳ¢": 1702,
      "çĻ»": 1703,
      "è½®": 1704,
      "è¿Ļæĺ¯": 1705,
      "èĤī": 1706,
      "æİĪ": 1707,
      "ä¿ĥè¿Ľ": 1708,
      "ä»·æł¼": 1709,
      "äº¿åħĥ": 1710,
      "18": 1711,
      "ä¹°": 1712,
      "ç»ĥ": 1713,
      "%,": 1714,
      "è·µ": 1715,
      "éĻĪ": 1716,
      "æİª": 1717,
      "é¤": 1718,
      "ä¹ĭä¸Ģ": 1719,
      "ä¼ĺåĬ¿": 1720,
      "æĮģç»Ń": 1721,
      "ç´¢": 1722,
      "å¸®åĬ©": 1723,
      "é¦Ĩ": 1724,
      "å°¼": 1725,
      "æĪĺçķ¥": 1726,
      "åħ¨çĲĥ": 1727,
      "çĿ£": 1728,
      "å³": 1729,
      "éĴĪ": 1730,
      "åª": 1731,
      "ä»·åĢ¼": 1732,
      "ç»©": 1733,
      "è·Ł": 1734,
      "åģľ": 1735,
      "æ¢°": 1736,
      "è½¯": 1737,
      "ä¿Ŀéļľ": 1738,
      "åıĤåĬł": 1739,
      "è¿½": 1740,
      "æĽ´å¤ļ": 1741,
      "æ¯ĶèµĽ": 1742,
      "æĻºèĥ½": 1743,
      "éĩĳèŀį": 1744,
      "èĸ": 1745,
      "æķ£": 1746,
      "é½": 1747,
      "è®¡åĪĴ": 1748,
      "éĿł": 1749,
      "èĻ½çĦ¶": 1750,
      "çµ": 1751,
      "åħ¸": 1752,
      "æĭ¥æľī": 1753,
      "å§Ķåĳĺ": 1754,
      "åıªæľī": 1755,
      "æ©": 1756,
      "äººä»¬": 1757,
      "èĦĳ": 1758,
      "å¥Ĺ": 1759,
      "ä¼¼": 1760,
      "éĴ±": 1761,
      "è¿Ľåħ¥": 1762,
      "éĢĢ": 1763,
      "åı¶": 1764,
      "éĺ¶": 1765,
      "èĤ¤": 1766,
      "ç¨³å®ļ": 1767,
      "çĽ´æİ¥": 1768,
      "æ£ĢæŁ¥": 1769,
      "éļıçĿĢ": 1770,
      "æĪĲåĬŁ": 1771,
      "èĵ": 1772,
      "äºĭä¸ļ": 1773,
      "æī©": 1774,
      "èĥ¶": 1775,
      "éĶĢåĶ®": 1776,
      "æķĻå¸Ī": 1777,
      "å¥ĭ": 1778,
      "è´µ": 1779,
      "æħ¢": 1780,
      "åŁ¹è®Ń": 1781,
      "ä¹ĭéĹ´": 1782,
      "åħ±åĲĮ": 1783,
      "å®ģ": 1784,
      "åŃķ": 1785,
      "æĶ»": 1786,
      "ä»ĭç»į": 1787,
      "æĻļ": 1788,
      "å¸Ń": 1789,
      "èį£": 1790,
      "èĭ¦": 1791,
      "èıĮ": 1792,
      "åĨ²": 1793,
      "çĪ¶": 1794,
      "éĢı": 1795,
      "æ°ĳæĹı": 1796,
      "çĶ¨æĪ·": 1797,
      "çĶŁæĢģ": 1798,
      "çĶµåŃĲ": 1799,
      "ç¶": 1800,
      "äºĪ": 1801,
      "çĶļèĩ³": 1802,
      "æİ¢": 1803,
      "åĪĺ": 1804,
      "æīĺ": 1805,
      "åħħåĪĨ": 1806,
      "èĦ±": 1807,
      "ç¥¨": 1808,
      "åĬłå·¥": 1809,
      "è½½": 1810,
      "åºĨ": 1811,
      "å®«": 1812,
      "éĶ®": 1813,
      "å¥ĩ": 1814,
      "èĲ½å®ŀ": 1815,
      "è¯ī": 1816,
      "çĴ": 1817,
      "16": 1818,
      "æ³Ľ": 1819,
      "éŃ": 1820,
      "åıĳå±ķçļĦ": 1821,
      "åıĳæĮ¥": 1822,
      "æ¯ķ": 1823,
      "è³": 1824,
      "æŃĮ": 1825,
      "å»¶": 1826,
      "åĺ": 1827,
      "åģĩ": 1828,
      "æ¾": 1829,
      "è¿ĩç¨ĭä¸Ń": 1830,
      "éĶĻ": 1831,
      "åıĬæĹ¶": 1832,
      "è§ĦåĪĴ": 1833,
      "æĢ§çļĦ": 1834,
      "æĹħæ¸¸": 1835,
      "æĮīçħ§": 1836,
      "ä»»ä½ķ": 1837,
      "ä¸¥éĩį": 1838,
      "å¥¥": 1839,
      "æĿ¾": 1840,
      "çļĦåıĳå±ķ": 1841,
      "æīįèĥ½": 1842,
      "å¾ĹåĪ°": 1843,
      "çĺ": 1844,
      "éĢĻ": 1845,
      "èĥĮ": 1846,
      "æ°¸": 1847,
      "ä»ĺ": 1848,
      "ä¸°å¯Į": 1849,
      "è´¯": 1850,
      "äº«": 1851,
      "ä»Ĭå¹´": 1852,
      "åİļ": 1853,
      "ä¹İ": 1854,
      "èĥ½æºĲ": 1855,
      "åĪĨéĴŁ": 1856,
      "è¡Įä¸º": 1857,
      "çĨŁ": 1858,
      "æĢ§èĥ½": 1859,
      "ä¸¤ä¸ª": 1860,
      "èĨľ": 1861,
      "ä¸ĢçĽ´": 1862,
      "å®ĮåĸĦ": 1863,
      "å¨ģ": 1864,
      "çģµ": 1865,
      "éĽ¨": 1866,
      "ç¬¬ä¸ī": 1867,
      "è¶ħè¿ĩ": 1868,
      "æĬ¥åĳĬ": 1869,
      "äº¤éĢļ": 1870,
      "ç»§ç»Ń": 1871,
      "å½»": 1872,
      "æł¸å¿ĥ": 1873,
      "çĽĸ": 1874,
      "æĢĢ": 1875,
      "æ¯Ľ": 1876,
      "ä½³": 1877,
      "åħ³äºİ": 1878,
      "éģ¿åħį": 1879,
      "æĪĲæľ¬": 1880,
      "ä¼Ł": 1881,
      "æľĭ": 1882,
      "14": 1883,
      "è¿İ": 1884,
      "èĭ¥": 1885,
      "é£İéĻ©": 1886,
      "æĸ¹æ¡Ī": 1887,
      "åĩıå°ĳ": 1888,
      "é²ľ": 1889,
      "æľĿ": 1890,
      "çĶŁçī©": 1891,
      "èĮĥåĽ´": 1892,
      "åºĵ": 1893,
      "è°Ī": 1894,
      "å®ŀè·µ": 1895,
      "ä¸ĵå®¶": 1896,
      "åĽłç´ł": 1897,
      "è§Ħæ¨¡": 1898,
      "åĢĭ": 1899,
      "æ¨¡å¼ı": 1900,
      "å¼ķèµ·": 1901,
      "åıĺåĮĸ": 1902,
      "æ²Ļ": 1903,
      "ç³»åĪĹ": 1904,
      "å°¤": 1905,
      "æľªæĿ¥": 1906,
      "ä»ĸçļĦ": 1907,
      "ç¦ģ": 1908,
      "èĹı": 1909,
      "ç»ıè¿ĩ": 1910,
      "æĬĵ": 1911,
      "çļĦå¤§": 1912,
      "åĲ¯": 1913,
      "æĽ²": 1914,
      "éĻĦ": 1915,
      "åĪ¤": 1916,
      "æĿĤ": 1917,
      "éģĹ": 1918,
      "æ³ķå¾ĭ": 1919,
      "13": 1920,
      "å®Ĺ": 1921,
      "åıĤä¸İ": 1922,
      "%ãĢĤ": 1923,
      "åĬĽéĩı": 1924,
      "ç«¥": 1925,
      "ç¡¬": 1926,
      "ç¤¾ä¼ļä¸»ä¹ī": 1927,
      "æľĢåĲİ": 1928,
      "æĸ½å·¥": 1929,
      "æĭ¿": 1930,
      "æĿ¯": 1931,
      "éł": 1932,
      "ä¸Ńåįİ": 1933,
      "è¯ļ": 1934,
      "æķĳ": 1935,
      "çļĦéĩįè¦ģ": 1936,
      "å©ļ": 1937,
      "å¤ı": 1938,
      "å®¶åºŃ": 1939,
      "ä¸Ģç§į": 1940,
      "äº®": 1941,
      "éķ¿æľŁ": 1942,
      "åıĹåĪ°": 1943,
      "å¹´æĿ¥": 1944,
      "ä¸Ģæ¬¡": 1945,
      "è®¸å¤ļ": 1946,
      "åĪļ": 1947,
      "çŃĶ": 1948,
      "èĻĳ": 1949,
      "åĿĹ": 1950,
      "æ¥¼": 1951,
      "å°ģ": 1952,
      "ä¸ĩåħĥ": 1953,
      "åªĴ": 1954,
      "ä¾Ĩ": 1955,
      "çĥĪ": 1956,
      "ä»¥ä¸ĭ": 1957,
      "æľĭåıĭ": 1958,
      "æĪĲç«ĭ": 1959,
      "åģļå¥½": 1960,
      "ä½Ľ": 1961,
      "ä¸įåı¯": 1962,
      "çĥŁ": 1963,
      "ä¿Ŀè¯ģ": 1964,
      "èµ·æĿ¥": 1965,
      "èħĲ": 1966,
      "ä»¥æĿ¥": 1967,
      "éĩįå¤§": 1968,
      "æľīçļĦ": 1969,
      "æı¡": 1970,
      "äº¤æµģ": 1971,
      "èĦĤ": 1972,
      "çĲĨè®º": 1973,
      "è¡¨çİ°": 1974,
      "åºŁ": 1975,
      "çļ®èĤ¤": 1976,
      "åį«çĶŁ": 1977,
      "ä¸½": 1978,
      "æĮĩå¯¼": 1979,
      "æ¶ī": 1980,
      "åĢŁ": 1981,
      "ä»»åĬ¡": 1982,
      "åħ³éĶ®": 1983,
      "æĪĳçļĦ": 1984,
      "è´¸": 1985,
      "æĹ¢": 1986,
      "ç»ıéªĮ": 1987,
      "å¦ĩ": 1988,
      "éĵ¶è¡Į": 1989,
      "ç¹": 1990,
      "ä¸Ģæł·": 1991,
      "éĽ¶": 1992,
      "çĸĳ": 1993,
      "æİªæĸ½": 1994,
      "éª¨": 1995,
      "æŀ¶": 1996,
      "æľŁéĹ´": 1997,
      "é±": 1998,
      "æ¶Ĥ": 1999,
      "éĿĻ": 2000,
      "æ´ģ": 2001,
      "èĥŀ": 2002,
      "åĨ³å®ļ": 2003,
      "ä½ĵèĤ²": 2004,
      "èģĶç½ĳ": 2005,
      "ä¸Ŀ": 2006,
      "çī¹çĤ¹": 2007,
      "å·¨": 2008,
      "å·Ŀ": 2009,
      "--": 2010,
      "æľºæ¢°": 2011,
      "çİ©": 2012,
      "ç«ŀäºī": 2013,
      "æĺ¯åľ¨": 2014,
      "è°¢": 2015,
      "éĻįä½İ": 2016,
      "çłĶåıĳ": 2017,
      "éĹ»": 2018,
      "æ¡¥": 2019,
      "ç³ĸ": 2020,
      "å¹¸": 2021,
      "æĺ¯ä¸Ģç§į": 2022,
      "æ¸Ĳ": 2023,
      "æİ¥åıĹ": 2024,
      "å®ľ": 2025,
      "è¡ĮæĶ¿": 2026,
      "é¡¾": 2027,
      "æ¶¦": 2028,
      "é±¼": 2029,
      "ä¼ĺç§Ģ": 2030,
      "æĺ¾ç¤º": 2031,
      "åĪº": 2032,
      "èļ": 2033,
      "çī©è´¨": 2034,
      "åĬ±": 2035,
      "å»ºè®®": 2036,
      "çĳ": 2037,
      "èĩªåĬ¨": 2038,
      "è¿Ŀ": 2039,
      "æ£Ģæµĭ": 2040,
      "ç½ª": 2041,
      "ç¤¼": 2042,
      "æĵįä½ľ": 2043,
      "èĶ": 2044,
      "éĺ´": 2045,
      "å¹¿æ³Ľ": 2046,
      "æĢİä¹Ī": 2047,
      "å·¥èīº": 2048,
      "çŃ¾": 2049,
      "ç¾¤ä¼Ĺ": 2050,
      "éĿ¢ç§¯": 2051,
      "åħĪè¿Ľ": 2052,
      "é¤Ĳ": 2053,
      "åħ·ä½ĵ": 2054,
      "éĵ¾": 2055,
      ")ãĢģ": 2056,
      "çĽŁ": 2057,
      "ç¬¦": 2058,
      "æ·±åħ¥": 2059,
      "åĬ³åĬ¨": 2060,
      "å®£ä¼ł": 2061,
      ")ãĢĤ": 2062,
      "è¿ĳå¹³": 2063,
      "æ±ł": 2064,
      "è´«": 2065,
      "æŃ£å¸¸": 2066,
      "ç»ĵæŀľ": 2067,
      "çŁ¿": 2068,
      "å°±ä¼ļ": 2069,
      "ä½łçļĦ": 2070,
      "å¢ŀå¼º": 2071,
      "çĶµå½±": 2072,
      "æĹłæ³ķ": 2073,
      "ä¹łè¿ĳå¹³": 2074,
      "âĢĿãĢģ": 2075,
      "è®°èĢħ": 2076,
      "åĨĮ": 2077,
      "ç©ºéĹ´": 2078,
      "ãĢĭ,": 2079,
      "ä¸įè¿ĩ": 2080,
      "çİī": 2081,
      "çļĦé«ĺ": 2082,
      "èĪŀ": 2083,
      "éľ²": 2084,
      "éļĶ": 2085,
      "ç´¯": 2086,
      "æĸ¹åĲĳ": 2087,
      "25": 2088,
      "æİĮ": 2089,
      "åŃ¸": 2090,
      "17": 2091,
      "å®ŀéªĮ": 2092,
      "æĦıè¯Ĩ": 2093,
      "æ´¾": 2094,
      "æĶ¶åħ¥": 2095,
      "çĶ³è¯·": 2096,
      "çĸ«æĥħ": 2097,
      "çĶ°": 2098,
      "æ¸¸æĪı": 2099,
      "ä½ľåĵģ": 2100,
      "éĺ¶æ®µ": 2101,
      "æ··": 2102,
      "000": 2103,
      "åĤ¨": 2104,
      "ä¼ĳ": 2105,
      "åĨľä¸ļ": 2106,
      "èµĦéĩĳ": 2107,
      "ç¢³": 2108,
      "æ±¡æŁĵ": 2109,
      "æī¬": 2110,
      "åİĭåĬĽ": 2111,
      "èĤ¥": 2112,
      "çĹĩçĬ¶": 2113,
      "æ¹¿": 2114,
      "çĬ¯": 2115,
      "åºĶå½ĵ": 2116,
      "å½¢å¼ı": 2117,
      "åĲī": 2118,
      "åľĭ": 2119,
      "æĮĩåĩº": 2120,
      "ä¼´": 2121,
      "åĳĺå·¥": 2122,
      "æĪĳä»¬çļĦ": 2123,
      "è®¿": 2124,
      "çļĦäºĭ": 2125,
      "ç£¨": 2126,
      "èľ": 2127,
      "èĽĭ": 2128,
      "é¹": 2129,
      "è´¥": 2130,
      "åĩĿ": 2131,
      "å¸Ŀ": 2132,
      "å¹¶ä¸Ķ": 2133,
      "åıĳå¸ĥ": 2134,
      "è¸": 2135,
      "ä¹Łæľī": 2136,
      "ç©¿": 2137,
      "å¼±": 2138,
      "è®¾æĸ½": 2139,
      "å¼ĢæĶ¾": 2140,
      "çĽĽ": 2141,
      "40": 2142,
      "å¿ĥçĲĨ": 2143,
      "çīĻ": 2144,
      "åĽ¢éĺŁ": 2145,
      "é«ĺçļĦ": 2146,
      "åĲĹ": 2147,
      "æĦıä¹ī": 2148,
      "å¤§éĩı": 2149,
      "è·Ŀ": 2150,
      "æĪĲæŀľ": 2151,
      "åĮºåŁŁ": 2152,
      "çĩĥ": 2153,
      "é¥°": 2154,
      "å¹ħ": 2155,
      "è¡ĮåĬ¨": 2156,
      "åłĤ": 2157,
      "åİħ": 2158,
      "çİ°åľº": 2159,
      "ä»İèĢĮ": 2160,
      "ç»´æĬ¤": 2161,
      "åĳ¼": 2162,
      "çĲĨå¿µ": 2163,
      "åĿı": 2164,
      "å¤ľ": 2165,
      "åĪĽéĢł": 2166,
      "é£Łçī©": 2167,
      "å¥³æĢ§": 2168,
      "è¡£": 2169,
      "ãĢĤâĢľ": 2170,
      "å¸ģ": 2171,
      "å·¦åı³": 2172,
      "ç¨ĭåº¦": 2173,
      "å¹²éĥ¨": 2174,
      "ç¡®ä¿Ŀ": 2175,
      "ç®Ģåįķ": 2176,
      "å®Įåħ¨": 2177,
      "è¯Ĺ": 2178,
      "ä¹³": 2179,
      "æĺİç¡®": 2180,
      "æĹ¥æľ¬": 2181,
      "åĮĸçļĦ": 2182,
      "çļĩ": 2183,
      "çłģ": 2184,
      "è´¡": 2185,
      "æľºåĪ¶": 2186,
      "èªī": 2187,
      "60": 2188,
      "éĽ·": 2189,
      "2020": 2190,
      "çº¸": 2191,
      "æĺİæĺ¾": 2192,
      "éĻ¤äºĨ": 2193,
      "åħ¶å®ŀ": 2194,
      "æ»ĳ": 2195,
      "æĺ¯åĲ¦": 2196,
      "åŁºåľ°": 2197,
      "æ»¡è¶³": 2198,
      "éģİ": 2199,
      "åĪĨåĪ«": 2200,
      "åĨ¬": 2201,
      "è§¦": 2202,
      "è®¨": 2203,
      "ç¼ĵ": 2204,
      "èģĶåĲĪ": 2205,
      "çĦ¶åĲİ": 2206,
      "çļĦå·¥ä½ľ": 2207,
      "åĮĸåŃ¦": 2208,
      "èī¯å¥½çļĦ": 2209,
      "åĩºäºĨ": 2210,
      "å¿«éĢŁ": 2211,
      "ä¸įå¾Ĺ": 2212,
      "éĺ»": 2213,
      "è¡¨éĿ¢": 2214,
      "æ¸©åº¦": 2215,
      "ç½ĳç«Ļ": 2216,
      "çĶŁåĳ½": 2217,
      "èĦļ": 2218,
      "å´": 2219,
      "å°ļ": 2220,
      "åħļåĳĺ": 2221,
      "çľĭåĪ°": 2222,
      "é¼ĵ": 2223,
      "ç»Łä¸Ģ": 2224,
      "åĲĪçĲĨ": 2225,
      "å²Ĺ": 2226,
      "èĩªèº«": 2227,
      "éĽª": 2228,
      "çļĦæĥħåĨµ": 2229,
      "æĿĢ": 2230,
      "è¯¢": 2231,
      "è§ĦèĮĥ": 2232,
      "è©": 2233,
      "ç®±": 2234,
      "è®¡ç®Ĺ": 2235,
      "å°į": 2236,
      "çĽĺ": 2237,
      "åįģåĪĨ": 2238,
      "éĢĶ": 2239,
      "ç¬ĳ": 2240,
      "åĸľæ¬¢": 2241,
      "åģı": 2242,
      "é½Ĳ": 2243,
      "çļĦæĸ°": 2244,
      "äºĶè¡Į": 2245,
      "å¦Ī": 2246,
      "æļĸ": 2247,
      "çļĦéĹ®é¢ĺ": 2248,
      "è¯į": 2249,
      "è´¯å½»": 2250,
      "å§Ķåĳĺä¼ļ": 2251,
      "ç»Ĩèĥŀ": 2252,
      "ä¸»ä»»": 2253,
      "æģ¶": 2254,
      "åħµ": 2255,
      "é¡¶": 2256,
      "ç¼©": 2257,
      "åĭĩ": 2258,
      "åĢĴ": 2259,
      "åįĪ": 2260,
      "äº¤æĺĵ": 2261,
      "çĽĳçĿ£": 2262,
      "æ¦Ĥ": 2263,
      "è¿ĻéĩĮ": 2264,
      "åıªæĺ¯": 2265,
      "è¯¯": 2266,
      "çĬ¶æĢģ": 2267,
      "æĸĳ": 2268,
      "å½Ĵ": 2269,
      "æħ§": 2270,
      "è°ĥæķ´": 2271,
      "è±Ĩ": 2272,
      "éĩĬ": 2273,
      "äººç±»": 2274,
      "æī§è¡Į": 2275,
      "å¸¦æĿ¥": 2276,
      "éĻĨ": 2277,
      "æĮĳ": 2278,
      "æ¯Ķå¦Ĥ": 2279,
      "çĻĮ": 2280,
      "æĮ¯": 2281,
      "åĲ§": 2282,
      "æĳĦ": 2283,
      "çļĦè¯Ŀ": 2284,
      "ä¸¥æł¼": 2285,
      "æĿ¨": 2286,
      "è¿Ĳè¡Į": 2287,
      "å¡Ķ": 2288,
      "éĽĦ": 2289,
      "çĻ¼": 2290,
      "å°¤åħ¶": 2291,
      "æ¯ķä¸ļ": 2292,
      "åħ³æ³¨": 2293,
      "24": 2294,
      "æ´ĭ": 2295,
      "åģļåĪ°": 2296,
      "éĩįè¦ģçļĦ": 2297,
      "ç»¿èī²": 2298,
      "èį¯çī©": 2299,
      "å®īè£ħ": 2300,
      "ä¹Łä¸į": 2301,
      "ä¿ĿéĻ©": 2302,
      "æ½®": 2303,
      "çİ¯ä¿Ŀ": 2304,
      "ç½²": 2305,
      "æķ°åŃĹ": 2306,
      "é¦ĸåħĪ": 2307,
      "ç§ĳçłĶ": 2308,
      "æŃ¤å¤ĸ": 2309,
      "çĶŁçļĦ": 2310,
      "åĢĳ": 2311,
      "è¡Ĺ": 2312,
      "ç»ĦæĪĲ": 2313,
      "æīĵéĢł": 2314,
      "äºĴèģĶç½ĳ": 2315,
      "å°¿": 2316,
      "è¶£": 2317,
      "æ±ĩ": 2318,
      "æ²ī": 2319,
      "æ®Ĭ": 2320,
      "æĸĩæĺİ": 2321,
      "åı¥è¯Ŀ": 2322,
      "ä½ĵçļĦ": 2323,
      "ç©ºæ°Ķ": 2324,
      "199": 2325,
      "è¶ĬæĿ¥": 2326,
      "èĢģå¸Ī": 2327,
      "å²Ľ": 2328,
      "åľĨ": 2329,
      "èĪĩ": 2330,
      "åı«": 2331,
      "çİ»": 2332,
      "åĬłå¿«": 2333,
      "æ³°": 2334,
      "æķı": 2335,
      "è¾Ĩ": 2336,
      "è¶ĬæĿ¥è¶Ĭ": 2337,
      "åŃ¦ç§ĳ": 2338,
      "ç»ıå¸¸": 2339,
      "ç¬¦åĲĪ": 2340,
      "æĦŁæŁĵ": 2341,
      "æĿŁ": 2342,
      "èĢĥèĻĳ": 2343,
      "ä»Ĭå¤©": 2344,
      "æ³¡": 2345,
      "è´´": 2346,
      "åĵĪ": 2347,
      "å³°": 2348,
      "ä¸įåĲĮçļĦ": 2349,
      "ç§ĭ": 2350,
      "æ¾³": 2351,
      "éĥ½æľī": 2352,
      "åħ¬åħ±": 2353,
      "æ³¨åĨĮ": 2354,
      "æĺ¯ä¸Ģä¸ª": 2355,
      "åĳĪ": 2356,
      "ç¥ĸ": 2357,
      "ç§ĺ": 2358,
      "çģ¯": 2359,
      "æĻ®éĢļ": 2360,
      "æĪĲç»©": 2361,
      "åĪ¶ä½ľ": 2362,
      "å¾ª": 2363,
      "æŃ£åľ¨": 2364,
      "è®¤çľŁ": 2365,
      "ç½ļ": 2366,
      "å«": 2367,
      "å°ıæĹ¶": 2368,
      "çĴĥ": 2369,
      "åĦ¿ç«¥": 2370,
      "çº·": 2371,
      "è´¡çĮ®": 2372,
      "å¡ŀ": 2373,
      "æĿ¥çľĭ": 2374,
      "åĨ°": 2375,
      "ç§ģ": 2376,
      "éĩĳå±ŀ": 2377,
      "èĻļ": 2378,
      "åįµ": 2379,
      "æľīäºĽ": 2380,
      "ç¹ģ": 2381,
      "2021": 2382,
      "ä¼°": 2383,
      "å±ŀäºİ": 2384,
      "ä¸ĭéĻį": 2385,
      "çľŁæŃ£": 2386,
      "è¡¡": 2387,
      "è¼": 2388,
      "è®¢": 2389,
      "èĲ¥åħ»": 2390,
      "å®½": 2391,
      "ä¸ºä¸»": 2392,
      "é¢ľ": 2393,
      "å¢Ļ": 2394,
      "å°±ä¸ļ": 2395,
      "åĿĲ": 2396,
      "ä¹Ļ": 2397,
      "å¥¶": 2398,
      "è¿Ĳè¾ĵ": 2399,
      "ä¿Ħ": 2400,
      "æ°§åĮĸ": 2401,
      "ç¬Ķ": 2402,
      "éĩİ": 2403,
      "çĽ®çļĦ": 2404,
      "åŁºéĩĳ": 2405,
      "åİŁåĪĻ": 2406,
      "æķĪçİĩ": 2407,
      "èµĦäº§": 2408,
      "æĭį": 2409,
      "æľĢç»Ī": 2410,
      "æĶ¹åıĺ": 2411,
      "çĿ¡": 2412,
      "è·¨": 2413,
      "åĢį": 2414,
      "äºĮåįģ": 2415,
      "æľºåħ³": 2416,
      "æľ«": 2417,
      "åı¬": 2418,
      "80": 2419,
      "æ¢ģ": 2420,
      "çĥ§": 2421,
      "çģ¾": 2422,
      "ä¹Łä¼ļ": 2423,
      "2019": 2424,
      "å¹ķ": 2425,
      "çĪĨ": 2426,
      "åĶĲ": 2427,
      "ä¹ĭåīį": 2428,
      "æĺł": 2429,
      "éļĲ": 2430,
      "__": 2431,
      "è®¤è¯Ĩ": 2432,
      "çĦ¦": 2433,
      "åĪ¶å®ļ": 2434,
      "åı¦å¤ĸ": 2435,
      "çİ»çĴĥ": 2436,
      "æķħäºĭ": 2437,
      "åĲİçļĦ": 2438,
      "æľºä¼ļ": 2439,
      "éĴĪå¯¹": 2440,
      "èĪ¹": 2441,
      "åĨľæĿĳ": 2442,
      "è°ĥæŁ¥": 2443,
      "æ¢ħ": 2444,
      "é¾Ħ": 2445,
      "æĸ¼": 2446,
      "èĤ¿": 2447,
      "æ£®": 2448,
      "ç¡®å®ļ": 2449,
      "èĤĿ": 2450,
      "æľīä¸Ģ": 2451,
      "ç¾İåħĥ": 2452,
      "åŃĶ": 2453,
      "èĳ£": 2454,
      "æ´¥": 2455,
      "23": 2456,
      "èĴĻ": 2457,
      "æĦıè§ģ": 2458,
      "éĿĴå¹´": 2459,
      "èĢĥè¯ķ": 2460,
      "åªĴä½ĵ": 2461,
      "æĭĵ": 2462,
      "åįıä¼ļ": 2463,
      "éĵĿ": 2464,
      "æµĵ": 2465,
      "ä¼į": 2466,
      "å¹¿å¤§": 2467,
      "çº¯": 2468,
      "ä»İäºĭ": 2469,
      "æ¥Ń": 2470,
      "æĹ¶æľŁ": 2471,
      "21": 2472,
      "çī©æµģ": 2473,
      "éĢĤåĲĪ": 2474,
      "æķ´ä¸ª": 2475,
      "æļ´": 2476,
      "æ¶Īè´¹èĢħ": 2477,
      "å¹¶ä¸į": 2478,
      "åįĸ": 2479,
      "çī¢": 2480,
      "æĸ°æĹ¶ä»£": 2481,
      "éĽĨä¸Ń": 2482,
      "èĥİ": 2483,
      "å¯¿": 2484,
      "ä¸Ģä¸ĭ": 2485,
      "åħļå§Ķ": 2486,
      "å¯»": 2487,
      "2018": 2488,
      "åĬŀåħ¬": 2489,
      "æ¥ļ": 2490,
      "éĢŁåº¦": 2491,
      "çħ¤": 2492,
      "æĥł": 2493,
      "æĢķ": 2494,
      "è¯¾ç¨ĭ": 2495,
      "åķĨä¸ļ": 2496,
      "åĩºçļĦ": 2497,
      "åĬĽçļĦ": 2498,
      "èµĦæľ¬": 2499,
      "ç»ķ": 2500,
      "ä¾§": 2501,
      "æ²»çĲĨ": 2502,
      "æł¹æľ¬": 2503,
      "ç¶ĵ": 2504,
      "æĥ¯": 2505,
      "åĸĿ": 2506,
      "åĪĽä¸ļ": 2507,
      "ç¯ĩ": 2508,
      "æĸ¹ä¾¿": 2509,
      "åıªè¦ģ": 2510,
      "å¯Ĵ": 2511,
      "å¾Ħ": 2512,
      "an": 2513,
      "éĿ¢å¯¹": 2514,
      "è¿ĩåİ»": 2515,
      "æĶ¹åĸĦ": 2516,
      "çĽĳç®¡": 2517,
      "çĽĲ": 2518,
      "çī¹æ®Ĭ": 2519,
      "æµª": 2520,
      "èĤł": 2521,
      "å½ĵæĹ¶": 2522,
      "å¤ļçļĦ": 2523,
      "ç§Ł": 2524,
      "èĥĥ": 2525,
      "æĹ§": 2526,
      "å¤ļç§į": 2527,
      "22": 2528,
      "é¦Ļæ¸¯": 2529,
      "æĬĺ": 2530,
      "æķ´ä½ĵ": 2531,
      "æ²Ł": 2532,
      "åĶ±": 2533,
      "åģ¿": 2534,
      "èĢĹ": 2535,
      "å¦ĤæŃ¤": 2536,
      "éģį": 2537,
      "éĺµ": 2538,
      "çĵ¦": 2539,
      "éŁ³ä¹Ĳ": 2540,
      "éº»": 2541,
      "å°Ĭ": 2542,
      "æĹĹ": 2543,
      "è¯º": 2544,
      "ä¸įå°ĳ": 2545,
      "åľĪ": 2546,
      "èµ¢": 2547,
      "ä¹±": 2548,
      "æİī": 2549,
      "æĬĢèĥ½": 2550,
      "éĹŃ": 2551,
      "âĢĿãĢģâĢľ": 2552,
      "è·ĳ": 2553,
      "åĩĨå¤ĩ": 2554,
      "é¸¡": 2555,
      "æī¶": 2556,
      "æº¶": 2557,
      "æģ¢": 2558,
      "çı¾": 2559,
      "å¼ºè°ĥ": 2560,
      "åŃĻ": 2561,
      "éĿ©åĳ½": 2562,
      "éī": 2563,
      "å½ĵåľ°": 2564,
      "ä¼ģä¸ļçļĦ": 2565,
      "åĩºåı£": 2566,
      "å·¥ä½ľçļĦ": 2567,
      "éĥ½ä¼ļ": 2568,
      "éĩįè§Ĩ": 2569,
      "ä¸ŃåĮ»": 2570,
      "ä¸ªæľĪ": 2571,
      "éŁ©": 2572,
      "è´·": 2573,
      "éĩĩåıĸ": 2574,
      "çĶµè§Ĩ": 2575,
      "è¿Ļæł·çļĦ": 2576,
      "èĤº": 2577,
      "ãĢģãĢĬ": 2578,
      "åķĨåĵģ": 2579,
      "å±ĭ": 2580,
      "åħ¨éĥ¨": 2581,
      "å¾Į": 2582,
      "éģĵè·¯": 2583,
      "2022": 2584,
      "æ³¥": 2585,
      "åħ±äº§": 2586,
      "åĽ°éļ¾": 2587,
      "æĻºæħ§": 2588,
      "åĭķ": 2589,
      "æĦŁè§ī": 2590,
      "è¿ĲèĲ¥": 2591,
      "è¿·": 2592,
      "æ¯ıå¤©": 2593,
      "çĲĨè§£": 2594,
      "å§ĭç»Ī": 2595,
      "èĢ³": 2596,
      "è´¹çĶ¨": 2597,
      "æ¡£": 2598,
      "70": 2599,
      "è¯¦": 2600,
      "èĩªçĶ±": 2601,
      "çĲĥéĺŁ": 2602,
      "æ²¿": 2603,
      "éī´": 2604,
      "çĽ¸ä¿¡": 2605,
      "ä¸Ģå®ļè¦ģ": 2606,
      "æĪª": 2607,
      "éĢļå¸¸": 2608,
      "é«ĺè´¨éĩı": 2609,
      "èħ¹": 2610,
      "ç¯®": 2611,
      "åıįåºĶ": 2612,
      "åĢº": 2613,
      "è¿ħ": 2614,
      "è¦Ĩ": 2615,
      "èĤ¯": 2616,
      "ä¸»é¢ĺ": 2617,
      "èµµ": 2618,
      "é«ĺæł¡": 2619,
      "å¼ºåĮĸ": 2620,
      "æķĻæİĪ": 2621,
      "ãĢĲ": 2622,
      "èŀįåĲĪ": 2623,
      "åĵģè´¨": 2624,
      "æĿ¥èĩª": 2625,
      "æŃ£å¼ı": 2626,
      "å¿ĺ": 2627,
      "åĬŀæ³ķ": 2628,
      "ãĢĳ": 2629,
      "é²ģ": 2630,
      "èģĶç³»": 2631,
      "çŃ¹": 2632,
      "æŃ£ç¡®": 2633,
      "åıĮæĸ¹": 2634,
      "æ®ĸ": 2635,
      "çĽ¸å¯¹": 2636,
      "ç¼ĺ": 2637,
      "èĥ¡": 2638,
      "çĶĺ": 2639,
      "æ¤įçī©": 2640,
      "èĲ¨": 2641,
      "ç«Ł": 2642,
      "±ä¹Ĳ": 2643,
      "ç²ĺ": 2644,
      "è¶ĭ": 2645,
      "ä¼ĺè´¨": 2646,
      "å¤§å¤ļ": 2647,
      "è½¯ä»¶": 2648,
      "å®īæİĴ": 2649,
      "äº¡": 2650,
      "éĶħ": 2651,
      "å±±ä¸ľ": 2652,
      "ä¸Ģå®ļçļĦ": 2653,
      "åĮħè£ħ": 2654,
      "é«Ķ": 2655,
      "åĲĦé¡¹": 2656,
      "è¾Ľ": 2657,
      "å¼¹": 2658,
      "ä¾Ŀæ³ķ": 2659,
      "å®ĥçļĦ": 2660,
      "æŃ¤æ¬¡": 2661,
      "é«ĺåº¦": 2662,
      "è§īå¾Ĺ": 2663,
      "ä¾µ": 2664,
      "ç²Ĵ": 2665,
      "éĨĴ": 2666,
      "ä¸ľè¥¿": 2667,
      "åħ¬éĩĮ": 2668,
      "é¢Ħéĺ²": 2669,
      "çİ°ä»£åĮĸ": 2670,
      "æĬķåħ¥": 2671,
      "åĲĮå¿Ĺ": 2672,
      "çŀ": 2673,
      "èĵĿ": 2674,
      "èħº": 2675,
      "é¥®é£Ł": 2676,
      "æĹ¥å¸¸": 2677,
      "åĲĦç±»": 2678,
      "åĪĨä¸º": 2679,
      "ä»¥åĲİ": 2680,
      "èµĦæĸĻ": 2681,
      "28": 2682,
      "åħ·å¤ĩ": 2683,
      "çİ°è±¡": 2684,
      "å¤§ä¼ļ": 2685,
      "åľ³": 2686,
      "ä¹łæĥ¯": 2687,
      "æģ¢å¤į": 2688,
      "åħ¼": 2689,
      "in": 2690,
      "æ¶¨": 2691,
      "çĤ¼": 2692,
      "ç¿»": 2693,
      "èĢĮæĺ¯": 2694,
      "ä½įäºİ": 2695,
      "äººä½ĵ": 2696,
      "æ·±åľ³": 2697,
      "æ½ľ": 2698,
      "26": 2699,
      "è¯¸": 2700,
      "èĤĮ": 2701,
      "åĮ»çĶŁ": 2702,
      "æķ¬": 2703,
      "å¹¼": 2704,
      "åĴ¨": 2705,
      "èªª": 2706,
      "ä¸ĭæĿ¥": 2707,
      "åĬ¨åĬĽ": 2708,
      "æĹłè®º": 2709,
      "éķ·": 2710,
      "åĪ·": 2711,
      "åĲ¨": 2712,
      "æĲŃ": 2713,
      "å¹³æĸ¹": 2714,
      "æģ©": 2715,
      "æĽ¾ç»ı": 2716,
      "åĵªäºĽ": 2717,
      "ä¾ĽåºĶ": 2718,
      "ä¸įè¶³": 2719,
      "åĮ»åŃ¦": 2720,
      "åĪĳ": 2721,
      "çĺ¤": 2722,
      "æ¯«": 2723,
      "åį·": 2724,
      "åĬłåħ¥": 2725,
      "è°ĵ": 2726,
      "å¥ĭæĸĹ": 2727,
      "å©´": 2728,
      "è°ģ": 2729,
      "æīİ": 2730,
      "çĦ¶èĢĮ": 2731,
      "åĶ¯": 2732,
      "ä¹Į": 2733,
      "ç·": 2734,
      "èİ«": 2735,
      "æ´Ľ": 2736,
      "æķ°éĩı": 2737,
      "æīĭæľ¯": 2738,
      "æ·¡": 2739,
      "å¹¸ç¦ı": 2740,
      "åĲĮåŃ¦": 2741,
      "çªĹ": 2742,
      "è¾ħ": 2743,
      "åĨįæ¬¡": 2744,
      "éľĩ": 2745,
      "ä¸įåĪ°": 2746,
      "åĩºæĿ¥": 2747,
      "æĤī": 2748,
      "åĲĮæ¯Ķ": 2749,
      "éĵľ": 2750,
      "èĦī": 2751,
      "éĺ²æŃ¢": 2752,
      "éķľ": 2753,
      "æķ¢": 2754,
      "æĪĲéķ¿": 2755,
      "å¢¨": 2756,
      "è§Ĩé¢ĳ": 2757,
      "æĢ§åĴĮ": 2758,
      "ä¼¦": 2759,
      "ä¹ı": 2760,
      "çĪ¶æ¯į": 2761,
      "ä»ģ": 2762,
      "èģĮå·¥": 2763,
      "ä¸´åºĬ": 2764,
      "è´¸æĺĵ": 2765,
      "å¹¿ä¸ľ": 2766,
      "åı¦ä¸Ģ": 2767,
      "èµĦæł¼": 2768,
      "äº§åĵģçļĦ": 2769,
      "åĭ¤": 2770,
      "æĳ©": 2771,
      "å¿ħè¦ģ": 2772,
      "åĮĸå·¥": 2773,
      "æı´": 2774,
      "å½ĵçĦ¶": 2775,
      "å¼ĥ": 2776,
      "ä¿Ĺ": 2777,
      "è§Ī": 2778,
      "æ³½": 2779,
      "ä¼Ĭ": 2780,
      "åĨħçļĦ": 2781,
      "èļĢ": 2782,
      "è£ģ": 2783,
      "å¡ĳæĸĻ": 2784,
      "éĽħ": 2785,
      "åĴ¨è¯¢": 2786,
      "æī©å¤§": 2787,
      "ä¸ģ": 2788,
      "çĶŁç´ł": 2789,
      "æ¹¾": 2790,
      "åĩ¡": 2791,
      "æµĻ": 2792,
      "ä¸ŃåĽ½çī¹èī²": 2793,
      "è¿ª": 2794,
      "æĢ»ä¹¦è®°": 2795,
      "ä¹ĺ": 2796,
      "ç¥Ŀ": 2797,
      "èĪĴ": 2798,
      "æľīæīĢ": 2799,
      "æł·çļĦ": 2800,
      "äº¦": 2801,
      "æ¼«": 2802,
      "åĲ´": 2803,
      "æľĢå¤§çļĦ": 2804,
      "å¾Ģå¾Ģ": 2805,
      "çº¤": 2806,
      "ä»ĸä»¬çļĦ": 2807,
      "2017": 2808,
      "ä½įç½®": 2809,
      "åĪºæ¿Ģ": 2810,
      "éģµ": 2811,
      "éĺŁä¼į": 2812,
      "æľĹ": 2813,
      "æľīæľº": 2814,
      "æĽ´å¥½": 2815,
      "è£Ĥ": 2816,
      "åĲĪåĲĮ": 2817,
      "æ¶µ": 2818,
      "å¼ºåº¦": 2819,
      "èĦı": 2820,
      "æĸ¹éĿ¢çļĦ": 2821,
      "ç´łè´¨": 2822,
      "å°ĺ": 2823,
      "å½¢è±¡": 2824,
      "ç¨ĭåºı": 2825,
      "æŀĦå»º": 2826,
      "ä¸ĢåĪĩ": 2827,
      "æİĮæı¡": 2828,
      "ä¼ĺåĮĸ": 2829,
      "èµĽåŃ£": 2830,
      "ç¤¾åĮº": 2831,
      "è¯´è¿ĩ": 2832,
      "è¿Ľè¡ĮäºĨ": 2833,
      "è«": 2834,
      "éĢĤåºĶ": 2835,
      "ä½ĵçİ°": 2836,
      "çļĦå°ı": 2837,
      "æ®ĭ": 2838,
      "ãĢĭãĢģãĢĬ": 2839,
      "è¯Ħä»·": 2840,
      "«çĹ": 2841,
      "æĸ°éĹ»": 2842,
      "éĽ»": 2843,
      "ç´«": 2844,
      "æ¯ıä¸ª": 2845,
      "çĹħæĥħ": 2846,
      "å£®": 2847,
      "ä¼Ļ": 2848,
      "éĢĲæ¸Ĳ": 2849,
      "ä¸»åĬ¨": 2850,
      "ä¸ĸçºª": 2851,
      "çļĦä¸»è¦ģ": 2852,
      "èĭĹ": 2853,
      "æ·»": 2854,
      "æĽ¿": 2855,
      "èĸĦ": 2856,
      "ä¾ĭå¦Ĥ": 2857,
      "æ¶īåıĬ": 2858,
      "çĹħæ¯Ĵ": 2859,
      "Â°": 2860,
      "å®ĥä»¬": 2861,
      "çļĦä½ľçĶ¨": 2862,
      "é¥Ń": 2863,
      "æľ¬æ¬¡": 2864,
      "éĤ£äºĽ": 2865,
      "å¤º": 2866,
      "27": 2867,
      "å¤§åŀĭ": 2868,
      "ç»ª": 2869,
      "å¾·åĽ½": 2870,
      "åĪ¸": 2871,
      "æľīäºº": 2872,
      "æĬ¥éģĵ": 2873,
      "æĬµ": 2874,
      "ç¤ºèĮĥ": 2875,
      "æ©Ł": 2876,
      "å®ĭ": 2877,
      "èĴ¸": 2878,
      "æĥĬ": 2879,
      "æĻ¶": 2880,
      "å¼Ł": 2881,
      "ä¸ĭçļĦ": 2882,
      "è¿Ļåı¥è¯Ŀ": 2883,
      "ç¬¬åįģ": 2884,
      "ä¼Łå¤§": 2885,
      "æľĢå¤§": 2886,
      "æĥ³è¦ģ": 2887,
      "ä¸Ĭå¸Ĥ": 2888,
      "å·§": 2889,
      "æľºåĻ¨": 2890,
      "åĩºçĶŁ": 2891,
      "å¤ļä¸ª": 2892,
      "ä¹Łåı¯ä»¥": 2893,
      "æĺ¯ä»Ģä¹Ī": 2894,
      "éĥĳ": 2895,
      "çĻ£": 2896,
      "ä»įçĦ¶": 2897,
      "é¡¿": 2898,
      "çıł": 2899,
      "å¼ķå¯¼": 2900,
      "çļĦå½±åĵį": 2901,
      "åħįçĸ«": 2902,
      "åĪ©çĽĬ": 2903,
      "çĽ¸æ¯Ķ": 2904,
      "èĩªæĪĳ": 2905,
      "çĳŀ": 2906,
      "çĶŁéķ¿": 2907,
      "è¿¹": 2908,
      "ç¬¬åĽĽ": 2909,
      "åºĦ": 2910,
      "ä¸ºä»Ģä¹Ī": 2911,
      "ä¸»å¸Ń": 2912,
      "æĽ¼": 2913,
      "ä½ĵéªĮ": 2914,
      "è¿ŀç»Ń": 2915,
      "çĶµæ±ł": 2916,
      "æĭľ": 2917,
      "åĪ©äºİ": 2918,
      "çĻ«çĹ": 2919,
      "éĶĭ": 2920,
      "çĻ«çĹ«": 2921,
      "åĩŃ": 2922,
      "æĬ½": 2923,
      "è°ĭ": 2924,
      "çªģåĩº": 2925,
      "åľ£": 2926,
      "çªģçł´": 2927,
      "å¤Ħäºİ": 2928,
      "ç¾Ĭ": 2929,
      "å®ŀåĬĽ": 2930,
      "åĳĬè¯ī": 2931,
      "åĪĢ": 2932,
      "æĪĲåĳĺ": 2933,
      "å¸¸è§ģ": 2934,
      "ç»Łè®¡": 2935,
      "åİ»å¹´": 2936,
      "åı¯èĥ½ä¼ļ": 2937,
      "æĹ¦": 2938,
      "æľīäºĨ": 2939,
      "è¯´æĺİ": 2940,
      "æĪĲäºĨ": 2941,
      "è´Ńä¹°": 2942,
      "èĦ¸": 2943,
      "äººåı£": 2944,
      "èģĺ": 2945,
      "è¿ĺè¦ģ": 2946,
      "æĿ°": 2947,
      "å¤įæĿĤ": 2948,
      "å±ķç¤º": 2949,
      "åıªèĥ½": 2950,
      "å¾Ĳ": 2951,
      "é©¾": 2952,
      "è»": 2953,
      "èĳ£äºĭ": 2954,
      "è°·": 2955,
      "æľ±": 2956,
      "çĦ¡": 2957,
      "åħĪçĶŁ": 2958,
      "åįĩçº§": 2959,
      "æĭŁ": 2960,
      "èī¯å¥½": 2961,
      "åħ§": 2962,
      "æīĭæľº": 2963,
      "çļĦäº§åĵģ": 2964,
      "èĩªä¸»": 2965,
      "æ°ı": 2966,
      "èĽĭçĻ½": 2967,
      "éĩıçļĦ": 2968,
      "æģĴ": 2969,
      "çŃīçŃī": 2970,
      "æİ¨å¹¿": 2971,
      "æľīçĿĢ": 2972,
      "æµ®": 2973,
      "æľĢé«ĺ": 2974,
      "åĲ«æľī": 2975,
      "æİ¢ç´¢": 2976,
      "çī¹åĪ«æĺ¯": 2977,
      "90": 2978,
      "éĢ²": 2979,
      "åĿļå®ļ": 2980,
      "æ·±åĪ»": 2981,
      "å±ı": 2982,
      "è´¢æĶ¿": 2983,
      "ç£ģ": 2984,
      "çīĽçļ®": 2985,
      "ä¸īä¸ª": 2986,
      "è¿ĲçĶ¨": 2987,
      "çķ¶": 2988,
      "çıį": 2989,
      "è¿ĽæŃ¥": 2990,
      "å¯¦": 2991,
      "èį·": 2992,
      "é«ĺéĢŁ": 2993,
      "35": 2994,
      "çĭ¬ç«ĭ": 2995,
      "è¯Ńè¨Ģ": 2996,
      "çĶ¢": 2997,
      "æĬĳ": 2998,
      "æ±¤": 2999,
      "å²¸": 3000,
      "æ§": 3001,
      "æĮĳæĪĺ": 3002,
      "èĢģå¹´": 3003,
      "åĨħéĥ¨": 3004,
      "å§ĵ": 3005,
      "æ·±åĮĸ": 3006,
      "éĸĵ": 3007,
      "åĸ·": 3008,
      "è´Ŀ": 3009,
      "å£ģ": 3010,
      "ä¸Ģå¹´": 3011,
      "æ±Łèĭı": 3012,
      "è®Ńç»ĥ": 3013,
      "æµĻæ±Ł": 3014,
      "è®¯": 3015,
      "çļĦåŁºç¡Ģ": 3016,
      "å®¶éķ¿": 3017,
      "æī¿æĭħ": 3018,
      "ä¸¹": 3019,
      "è¯ģæĺİ": 3020,
      "åĨłåĨĽ": 3021,
      "èħĶ": 3022,
      "æ¬§æ´²": 3023,
      "è´Łè´£äºº": 3024,
      "å±ħæ°ĳ": 3025,
      "ä¸Ńå°ı": 3026,
      "è´¦": 3027,
      "ä¸ŃåĽ½çī¹èī²ç¤¾ä¼ļä¸»ä¹ī": 3028,
      "è¿½æ±Ĥ": 3029,
      "åıĬåħ¶": 3030,
      "å²Ĺä½į": 3031,
      "éĩįåºĨ": 3032,
      "é»ĺ": 3033,
      "å½ĵåīį": 3034,
      "æİ¥è§¦": 3035,
      "æĩī": 3036,
      "ç»´çĶŁç´ł": 3037,
      "éģŃ": 3038,
      "ä¸Ģä½ĵ": 3039,
      "çĩ¥": 3040,
      "ç§°ä¸º": 3041,
      "åħ¨ä½ĵ": 3042,
      "åįıè°ĥ": 3043,
      "çīĽçļ®çĻ£": 3044,
      "ç±»åŀĭ": 3045,
      "éħĴåºĹ": 3046,
      "ç¢į": 3047,
      "èĤ¾": 3048,
      "éĹľ": 3049,
      "åľ°ä½į": 3050,
      "çĮª": 3051,
      "åĽĽå·Ŀ": 3052,
      "å¹´è½»": 3053,
      "éĥ¨ç½²": 3054,
      "æĸĩä»¶": 3055,
      "è¿ħéĢŁ": 3056,
      "åĵ¥": 3057,
      "çĶ¨çļĦ": 3058,
      "è§Ĵåº¦": 3059,
      "å°¤åħ¶æĺ¯": 3060,
      "éĺħ": 3061,
      "å±¥": 3062,
      "ç»ıçĲĨ": 3063,
      "èĤ¡ä»½": 3064,
      "æĹº": 3065,
      "éĸĭ": 3066,
      "ä¸¾åĬŀ": 3067,
      "å®ŀéªĮå®¤": 3068,
      "ä½¿åĳ½": 3069,
      "çĲĨæĥ³": 3070,
      "è®²è¯Ŀ": 3071,
      "åĺī": 3072,
      "æŁĶ": 3073,
      "åİĤå®¶": 3074,
      "å¦»": 3075,
      "çļĦæĹ¶éĹ´": 3076,
      "å¹³åĿĩ": 3077,
      "çģ°": 3078,
      "é¢ĨåħĪ": 3079,
      "æ²³åįĹ": 3080,
      "æ¬²": 3081,
      "åħ¬åı¸çļĦ": 3082,
      "å¤©çĦ¶": 3083,
      "æĢĿèĢĥ": 3084,
      "èĬĤèĥ½": 3085,
      "åŁºå±Ĥ": 3086,
      "ç»ĵæĿŁ": 3087,
      "åį±å®³": 3088,
      "äººå£«": 3089,
      "åĽ½åĬ¡": 3090,
      "åĬ¨çī©": 3091,
      "500": 3092,
      "å¹¿å·ŀ": 3093,
      "å¿ł": 3094,
      "æĺĮ": 3095,
      "ç½Ĺæĸ¯": 3096,
      "ä¼łæĴŃ": 3097,
      "å¦Ĥä»Ĭ": 3098,
      "éĿ¢çļĦ": 3099,
      "åĲ¸æĶ¶": 3100,
      "åĲĦåľ°": 3101,
      "å¡«": 3102,
      "å®ı": 3103,
      "å¼ºçļĦ": 3104,
      "ä¹ĭéĹ´çļĦ": 3105,
      "å°±åı¯ä»¥": 3106,
      "è±ª": 3107,
      "æľ¬èº«": 3108,
      "å¾ªçİ¯": 3109,
      "å±ĳ": 3110,
      "åħ¬å¼Ģ": 3111,
      "æ¯ıå¹´": 3112,
      "29": 3113,
      "èĩªæ²»": 3114,
      "æ³Į": 3115,
      "çİ°å®ŀ": 3116,
      "æĪ´": 3117,
      "èĢħçļĦ": 3118,
      "èĢĮè¨Ģ": 3119,
      "åĲ¸å¼ķ": 3120,
      "å¹´åº¦": 3121,
      "çĥ¯": 3122,
      "æ¬¢è¿İ": 3123,
      "ç²®": 3124,
      "çģŃ": 3125,
      "ç»ıåİĨ": 3126,
      "æĺ¯æĮĩ": 3127,
      "äºĭå®ŀ": 3128,
      "çĲĥåĳĺ": 3129,
      "æĹ¨": 3130,
      "åŃ¦æľ¯": 3131,
      "è·³": 3132,
      "æĢ»ç»ĵ": 3133,
      "æĴĳ": 3134,
      "2016": 3135,
      "è¿Ļä¸ªéĹ®é¢ĺ": 3136,
      "èİ±": 3137,
      "é¼ĵåĬ±": 3138,
      "äºĭä»¶": 3139,
      "èĭ±åĽ½": 3140,
      "on": 3141,
      "åĿĢ": 3142,
      "äººå·¥": 3143,
      "è¿ĳå¹´æĿ¥": 3144,
      "éĻ·": 3145,
      "ä¸»ä½ĵ": 3146,
      "æĻĵ": 3147,
      "è®¾ç½®": 3148,
      "éĽķ": 3149,
      "è¯Ħä¼°": 3150,
      "åĵ²": 3151,
      "æĮĤ": 3152,
      "å»ī": 3153,
      "åľŁåľ°": 3154,
      "è½´": 3155,
      "ä¸°å¯ĮçļĦ": 3156,
      "çĶŁæ´»ä¸Ń": 3157,
      "å¥ī": 3158,
      "åĿ¦": 3159,
      "ç«¹": 3160,
      "å°ĳå¹´": 3161,
      "åĢ¼å¾Ĺ": 3162,
      "åĪĨåŃĲ": 3163,
      "éĿ¢ä¸´": 3164,
      "er": 3165,
      "èµı": 3166,
      "ä¸¾è¡Į": 3167,
      "éĻ¶": 3168,
      "æ»¤": 3169,
      "è¯ķéªĮ": 3170,
      "åį³ä½¿": 3171,
      "è¾ĳ": 3172,
      "äºĭæĥħ": 3173,
      "äºĭæķħ": 3174,
      "çŁ¥åĲį": 3175,
      "æĦĪ": 3176,
      "å®ĩ": 3177,
      "æĿĨ": 3178,
      "è®¤è¯ģ": 3179,
      "éĤĦ": 3180,
      "æĥħç»ª": 3181,
      "æļĹ": 3182,
      "åĽ½åĬ¡éĻ¢": 3183,
      "èµŀ": 3184,
      "æĩĤ": 3185,
      "åĬłå¤§": 3186,
      "ç±į": 3187,
      "è§Ĥä¼Ĺ": 3188,
      "åħ±äº§åħļ": 3189,
      "æĹĭ": 3190,
      "âĢĿâĢľ": 3191,
      "æıı": 3192,
      "èĤ¯å®ļ": 3193,
      "çľł": 3194,
      "æµĭè¯ķ": 3195,
      "æ°¨": 3196,
      "æľ¬ç§ĳ": 3197,
      "å¤ļå°ĳ": 3198,
      "æĭĴ": 3199,
      "é¢ľèī²": 3200,
      "çļĦæ²»çĸĹ": 3201,
      "çĽ¸å½ĵ": 3202,
      "æĳĨ": 3203,
      "å¤ªéĺ³": 3204,
      "æĭ¼": 3205,
      "çļĦå¿ĥ": 3206,
      "å®ŀè¡Į": 3207,
      "2015": 3208,
      "ä¼¯": 3209,
      "åĵ¡": 3210,
      "æĶ¯ä»ĺ": 3211,
      "æħİ": 3212,
      "è¹": 3213,
      "é£ŁçĶ¨": 3214,
      "èĲ¥éĶĢ": 3215,
      "åħ¬è·¯": 3216,
      "ç¨®": 3217,
      "åĽ´ç»ķ": 3218,
      "åĽ¢ç»ĵ": 3219,
      "æį·": 3220,
      "æ¯ıä¸Ģ": 3221,
      "é¢Ĺ": 3222,
      "ä»¤äºº": 3223,
      "ç»ĻäºĪ": 3224,
      "éº¦": 3225,
      "åĲĽ": 3226,
      "å¾Īå¤§": 3227,
      "çļĦä¸į": 3228,
      "èģĶèµĽ": 3229,
      "ĥåľ": 3230,
      "åĩĨç¡®": 3231,
      "çĽ¸åºĶ": 3232,
      "ç§¦": 3233,
      "å§Ĩ": 3234,
      "æĭĶ": 3235,
      "èŀº": 3236,
      "çĬ¶åĨµ": 3237,
      "çĻ»è®°": 3238,
      "åĪ¶åĵģ": 3239,
      "åħĪåĲİ": 3240,
      "åħĥç´ł": 3241,
      "è¡Ģç®¡": 3242,
      "198": 3243,
      "åĭĴ": 3244,
      "çº¤ç»´": 3245,
      "å¤§åĬĽ": 3246,
      "éĩĮçļĦ": 3247,
      "å¤§åĪ©": 3248,
      "å±ķå¼Ģ": 3249,
      "æ³ķéĻ¢": 3250,
      "èķ": 3251,
      "æľºçļĦ": 3252,
      "æĬ¢": 3253,
      "å¹¿åĳĬ": 3254,
      "åĬŀçĲĨ": 3255,
      "çĬ¯ç½ª": 3256,
      "é©¶": 3257,
      "æī¾åĪ°": 3258,
      "çĻ½æĸĳ": 3259,
      "ä¸»æĮģ": 3260,
      "æ¨ª": 3261,
      "åıĳçĹħ": 3262,
      "èĪªç©º": 3263,
      "åķĨæłĩ": 3264,
      "å¸ĥå±Ģ": 3265,
      "éĢĴ": 3266,
      "åı¬å¼Ģ": 3267,
      "åįļå£«": 3268,
      "æ³ī": 3269,
      "éĶĪ": 3270,
      "çļĦåľ°æĸ¹": 3271,
      "éħįåĲĪ": 3272,
      "åĲ«éĩı": 3273,
      "çİ¯èĬĤ": 3274,
      "å¿½": 3275,
      "æ±¡æ°´": 3276,
      "çį": 3277,
      "è¿«": 3278,
      "è¾ī": 3279,
      "å¹³æĸ¹ç±³": 3280,
      "åĪĽä½ľ": 3281,
      "åĩī": 3282,
      "åįıè®®": 3283,
      "æ¦ľ": 3284,
      "æĸ°åŀĭ": 3285,
      "é£İæł¼": 3286,
      "è¶ĭåĬ¿": 3287,
      "åĿĽ": 3288,
      "åį±éĻ©": 3289,
      "ä¸Ĭåįĩ": 3290,
      "åĹ": 3291,
      "ä¿Ħç½Ĺæĸ¯": 3292,
      "åŃĲçļĦ": 3293,
      "çļĦä¼ģä¸ļ": 3294,
      "éĢļçŁ¥": 3295,
      "ç§»åĬ¨": 3296,
      "è½¦è¾Ĩ": 3297,
      "èĻ«": 3298,
      "æ³µ": 3299,
      "æĪĲåĪĨ": 3300,
      "éĩįæĸ°": 3301,
      "çĽ¸äºĴ": 3302,
      "é¡ºåĪ©": 3303,
      "ä¹łè¿ĳå¹³æĢ»ä¹¦è®°": 3304,
      "çĸĨ": 3305,
      ",ãĢĬ": 3306,
      "çŃīæĸ¹éĿ¢": 3307,
      "æ¯Ķä¾ĭ": 3308,
      "åŀĥåľ": 3309,
      "åŀĥåľ¾": 3310,
      "ä¸ĵåĪ©": 3311,
      "è¯¦ç»Ĩ": 3312,
      "æīĭæ®µ": 3313,
      "çļĦæĸ¹å¼ı": 3314,
      "å¹´é¾Ħ": 3315,
      "é«ĺæķĪ": 3316,
      "æ¸ł": 3317,
      "è£ħå¤ĩ": 3318,
      "å¿Ĩ": 3319,
      "é©±": 3320,
      "æĪĲå°±": 3321,
      "å¤ļå¹´": 3322,
      "è¦ĨçĽĸ": 3323,
      "æī£": 3324,
      "æ²ŁéĢļ": 3325,
      "äººçĶŁ": 3326,
      "è¿Ļä¹Ī": 3327,
      "2000": 3328,
      "æŁ±": 3329,
      "æļĤ": 3330,
      "æĺ¯ä¸į": 3331,
      "èĶ¬": 3332,
      "åĪ«äºº": 3333,
      "æĬ¤çĲĨ": 3334,
      "ç¡ķ": 3335,
      "æľĢä½³": 3336,
      "å©´åĦ¿": 3337,
      "è¯ģä¹¦": 3338,
      "ä¸Ģä¸ªäºº": 3339,
      "è½¬åŀĭ": 3340,
      "çĶľ": 3341,
      "ä¼ı": 3342,
      "ä¸Ģæĺ¯": 3343,
      "äº«åıĹ": 3344,
      "æľĢå¥½": 3345,
      "æİĴåĲį": 3346,
      "èįĲ": 3347,
      "å¤§å¤§": 3348,
      "è¿Ķ": 3349,
      "æ¡ĥ": 3350,
      "è¿Ļæ¬¡": 3351,
      "çĤī": 3352,
      "31": 3353,
      "åıĺå¾Ĺ": 3354,
      "æ´ŀ": 3355,
      "æĢģåº¦": 3356,
      "å¯¿åĳ½": 3357,
      "æ°ĳä¸»": 3358,
      "èĳĹåĲį": 3359,
      "ä¼¸": 3360,
      "å°ĩ": 3361,
      "æ³ķè§Ħ": 3362,
      "ç¾İæľ¯": 3363,
      "çļĦè¦ģæ±Ĥ": 3364,
      "æ´ª": 3365,
      "æģĭ": 3366,
      "åĽ½æľī": 3367,
      "ä¸ĢçĤ¹": 3368,
      "çĵľ": 3369,
      "36": 3370,
      "éĻĲåĪ¶": 3371,
      "è½¨": 3372,
      "çľŁçļĦ": 3373,
      "éŀ": 3374,
      "çĽĳæµĭ": 3375,
      "ä¼¼ä¹İ": 3376,
      "å±ķçİ°": 3377,
      "æ³¨éĩį": 3378,
      "ä¹¡æĿĳ": 3379,
      "çĶµåĬĽ": 3380,
      "æĽ´æĺ¯": 3381,
      "ä¸Ĭè¿°": 3382,
      "é«ĺçŃī": 3383,
      "çļĦåĲĮæĹ¶": 3384,
      "äºķ": 3385,
      "çĵ·": 3386,
      "âĢĻ": 3387,
      "æĪĲéĥ½": 3388,
      "ç¸": 3389,
      "å®¾": 3390,
      "çĵ¶": 3391,
      "éĢĲæŃ¥": 3392,
      "ç¥ŀç»ı": 3393,
      "çļĦçĶŁæ´»": 3394,
      "ãĢĭãĢĤ": 3395,
      "åĭĻ": 3396,
      "èĳ¡": 3397,
      "èĥĨ": 3398,
      "çŁ³æ²¹": 3399,
      "éļĨ": 3400,
      "æĦŁåĪ°": 3401,
      "éĨĩ": 3402,
      "è·Ŀç¦»": 3403,
      "éļ¾ä»¥": 3404,
      "åŃ¦ä¼ļ": 3405,
      "è¡°": 3406,
      "åĪĨæ³Į": 3407,
      "åĨ³èµĽ": 3408,
      "æĶ¯æĴĳ": 3409,
      "åľ¨ä¸ŃåĽ½": 3410,
      "èº«ä»½": 3411,
      "æŀĦæĪĲ": 3412,
      "ä¼ļä¸Ĭ": 3413,
      "æıĲä¾ĽäºĨ": 3414,
      "æ²Ĵ": 3415,
      "é©»": 3416,
      "æĶ¾åľ¨": 3417,
      "ãĢĤ(": 3418,
      "åŃĲå®«": 3419,
      "èĻİ": 3420,
      "çļĦå¥½": 3421,
      "å°¾": 3422,
      "å·¥åħ·": 3423,
      "æµĭéĩı": 3424,
      "ä¸ĭéĿ¢": 3425,
      "èī°": 3426,
      "æ¶Īæģ¯": 3427,
      ")(": 3428,
      "èħĲèļĢ": 3429,
      "æĪĲçĨŁ": 3430,
      "ä¸ĵä¸ļçļĦ": 3431,
      "å¤ļæ¬¡": 3432,
      "æĢ»ä½ĵ": 3433,
      "è²Į": 3434,
      "å¿ĥçļĦ": 3435,
      "æĸĩåŃ¦": 3436,
      "æĽ´å¤ļçļĦ": 3437,
      "en": 3438,
      "èı²": 3439,
      "çĶµåĬ¨": 3440,
      "çľģçº§": 3441,
      "èµĶ": 3442,
      "åĪĩå®ŀ": 3443,
      "åĩłä¹İ": 3444,
      "çī©çļĦ": 3445,
      "èī²çļĦ": 3446,
      "åĨ³çŃĸ": 3447,
      "ç¼ºä¹ı": 3448,
      "é«ĺçº§": 3449,
      "æľĪä»½": 3450,
      "åĿ¡": 3451,
      "ä»ªåĻ¨": 3452,
      "çº¹": 3453,
      "çĻ¾å¹´": 3454,
      "çķħ": 3455,
      "å»ºæĪĲ": 3456,
      "å¤§å¤ļæķ°": 3457,
      "è®©äºº": 3458,
      "äºĮæĺ¯": 3459,
      "åıįæĺł": 3460,
      "åĢ¾": 3461,
      "åĲĦä¸ª": 3462,
      "æĿľ": 3463,
      "ä¸ĩäºº": 3464,
      "æŃ¦æ±ī": 3465,
      "åı¯éĿł": 3466,
      "æľīå¾Īå¤ļ": 3467,
      "åĬĽåº¦": 3468,
      "æ¸ħæ¥ļ": 3469,
      "åİŁæĸĻ": 3470,
      "ä¸»è¦ģæĺ¯": 3471,
      "å¼ķé¢Ĩ": 3472,
      "ä½ľåĩº": 3473,
      "çĦĬ": 3474,
      "éĵģè·¯": 3475,
      "åľ¨äºİ": 3476,
      "æĦŁæĥħ": 3477,
      "éĹ²": 3478,
      "ä¸ĸçķĮæĿ¯": 3479,
      "é¢Ī": 3480,
      "çļĦä¸Ģç§į": 3481,
      "å¹´ä»£": 3482,
      "45": 3483,
      "å®¿": 3484,
      "å§Ķä¼ļ": 3485,
      "è¿ģ": 3486,
      "è´¢åĬ¡": 3487,
      "è¯ķç®¡": 3488,
      "å·ŀå¸Ĥ": 3489,
      "æĢĿç»´": 3490,
      "è¡¨æĺİ": 3491,
      "èĥĮæĻ¯": 3492,
      "çĸ¼": 3493,
      "åĽĬ": 3494,
      "éģĵå¾·": 3495,
      "è¡¨è¾¾": 3496,
      "åĵģç§į": 3497,
      "æĬĬæı¡": 3498,
      "æłĩå¿Ĺ": 3499,
      "åĩºçīĪ": 3500,
      "ä¸įèī¯": 3501,
      "ä¹ĭå¤ĸ": 3502,
      "è·ĥ": 3503,
      "è´·æ¬¾": 3504,
      "åĽĽä¸ª": 3505,
      "åıĳçĶµ": 3506,
      "è£ħé¥°": 3507,
      "çĭĹ": 3508,
      "å¹²çĩ¥": 3509,
      "çļĦåİŁåĽł": 3510,
      "åĳ¼åĲ¸": 3511,
      "âĢĺ": 3512,
      "?âĢĿ": 3513,
      "èµĸ": 3514,
      "åħ«åŃĹ": 3515,
      "çĶ·æĢ§": 3516,
      "åĪĬ": 3517,
      "å¤§éĥ¨åĪĨ": 3518,
      "åħ¬å¸ĥ": 3519,
      "åĲĦçº§": 3520,
      "å°½ç®¡": 3521,
      "ä»ĵ": 3522,
      "è¿Ľåı£": 3523,
      "æĶ¹éĢł": 3524,
      "é©¬åħĭ": 3525,
      "ä»ĸäºº": 3526,
      "ä¸Ńåįİæ°ĳæĹı": 3527,
      "äº§æĿĥ": 3528,
      "åħ¬å®ī": 3529,
      "å§Ĳ": 3530,
      "åķĨåĬ¡": 3531,
      "å°º": 3532,
      "åĲĪæł¼": 3533,
      "æķĪçĽĬ": 3534,
      "çĹħäºº": 3535,
      "é»ŀ": 3536,
      "å¼ķåıĳ": 3537,
      "æ¶ĤæĸĻ": 3538,
      "æľŁçļĦ": 3539,
      "ä»£çĲĨ": 3540,
      "çĪ±æĥħ": 3541,
      "éģĩåĪ°": 3542,
      "æ°Ľ": 3543,
      "æ¸ħæ´ģ": 3544,
      "äºİæĺ¯": 3545,
      "æĻĭ": 3546,
      "å¿Ļ": 3547,
      "æ¼ı": 3548,
      "å®¤åĨħ": 3549,
      "åįģäºĮ": 3550,
      "éĻ¢æł¡": 3551,
      "ä¹ĥ": 3552,
      "åĬ²": 3553,
      "èµ¶": 3554,
      "è®°å½ķ": 3555,
      "æ¹ĸåįĹ": 3556,
      "éĺ²æİ§": 3557,
      "è½¬åĮĸ": 3558,
      "åĲİæĿ¥": 3559,
      "åı¯æĺ¯": 3560,
      "è³ª": 3561,
      "è¦ģæ³¨æĦı": 3562,
      "åģļåĩº": 3563,
      "ä¾Ŀæį®": 3564,
      "è®¡ç®Ĺæľº": 3565,
      "åĨĴ": 3566,
      "å¾½": 3567,
      "éĥ½ä¸į": 3568,
      "è°±": 3569,
      "æĦıåĳ³": 3570,
      "æłı": 3571,
      "åľ°äº§": 3572,
      "èĲĦ": 3573,
      "çļĦä¸Ģä¸ª": 3574,
      "åģ¶": 3575,
      "ç¢İ": 3576,
      "èŀįèµĦ": 3577,
      "ä¸Ģæµģ": 3578,
      "è¿ŀæİ¥": 3579,
      "åĪ©æ¶¦": 3580,
      "æĨ": 3581,
      "ç¼´": 3582,
      "ç¾İä¸½": 3583,
      "åĽºå®ļ": 3584,
      "ä½¿å¾Ĺ": 3585,
      "æĮĩæłĩ": 3586,
      "çļĦäºĭæĥħ": 3587,
      "å°½éĩı": 3588,
      "åº¦çļĦ": 3589,
      "ç¡ħ": 3590,
      "æģĲ": 3591,
      "æĤ£èĢħçļĦ": 3592,
      "æ©¡": 3593,
      "çī¹å¾ģ": 3594,
      "æ¸ħæ´Ĺ": 3595,
      "åĲĮæł·": 3596,
      "ä¸ĢæĹ¦": 3597,
      "åĩłä¸ª": 3598,
      "èĤĥ": 3599,
      "æīĢè°ĵ": 3600,
      "èĥ¸": 3601,
      "åıĳè¡¨": 3602,
      "å²©": 3603,
      "æ¼Ĩ": 3604,
      "è¶³çĲĥ": 3605,
      "ä»¿": 3606,
      "300": 3607,
      "è§Ĥå¯Ł": 3608,
      "è°Ĳ": 3609,
      "ä½łä»¬": 3610,
      "åŁ¹èĤ²": 3611,
      "äº¿ç¾İåħĥ": 3612,
      "è¯±": 3613,
      "æī¹åĩĨ": 3614,
      "----": 3615,
      "å¯¹å¤ĸ": 3616,
      "æİĴæĶ¾": 3617,
      "çĭ¬çī¹": 3618,
      "è°ĥèĬĤ": 3619,
      "æĪĳåĢĳ": 3620,
      "æ±Ĺ": 3621,
      "èĳ¡èĲĦ": 3622,
      "æķĮ": 3623,
      "ç¾İçļĦ": 3624,
      "è¯ĬæĸŃ": 3625,
      "ä¼ļæľī": 3626,
      "æĺ¾èĳĹ": 3627,
      "æĸ°æĬĢæľ¯": 3628,
      "è·Į": 3629,
      "å¹³è¡¡": 3630,
      "çļĦæĬĢæľ¯": 3631,
      "äººåľ¨": 3632,
      "æ³Ħ": 3633,
      "åĲ¯åĬ¨": 3634,
      "åł´": 3635,
      "æİ¨èįĲ": 3636,
      "æĬ±": 3637,
      "å¾Ĵ": 3638,
      "è®¾ç«ĭ": 3639,
      "æł¡åĽŃ": 3640,
      "é¼»": 3641,
      "å®ĺæĸ¹": 3642,
      "æµģç¨ĭ": 3643,
      "ç¢±": 3644,
      "ä»Ļ": 3645,
      "å¨±ä¹Ĳ": 3646,
      "çģĮ": 3647,
      "ç»´ä¿®": 3648,
      "ä¸Ģèĩ´": 3649,
      "å¯¹æĸ¹": 3650,
      "åħ¬åĽŃ": 3651,
      "éĶ»": 3652,
      "æĶ¯éĥ¨": 3653,
      "æĢ»æĺ¯": 3654,
      "çĤŃ": 3655,
      "ç»ĺ": 3656,
      "æ²³åĮĹ": 3657,
      "æ°£": 3658,
      "éĺĶ": 3659,
      "åĬŀåŃ¦": 3660,
      "çłĸ": 3661,
      "æ»´": 3662,
      "é¦ĸæ¬¡": 3663,
      "ä¸īå¹´": 3664,
      "æĸĩç«ł": 3665,
      "å°ĸ": 3666,
      "æŃ£æĺ¯": 3667,
      "å¥¹çļĦ": 3668,
      "çļĦæĸ¹æ³ķ": 3669,
      "ä½ĵåĪ¶": 3670,
      "æĵ¦": 3671,
      "ä¸ŃåĽ½åħ±äº§åħļ": 3672,
      "èĥľåĪ©": 3673,
      "çĥ¦": 3674,
      "æī°": 3675,
      "èĩ´åĬĽ": 3676,
      "è£ħç½®": 3677,
      "æĤ²": 3678,
      "èĪį": 3679,
      "2014": 3680,
      "ä¸»ç®¡": 3681,
      "åħ±äº«": 3682,
      "å¦Īå¦Ī": 3683,
      "èĩ³ä»Ĭ": 3684,
      "ä½©": 3685,
      "åĨ»": 3686,
      "æĽ´å¥½çļĦ": 3687,
      "éĢĨ": 3688,
      "åįģä¹Ŀ": 3689,
      "éĢĤå½ĵ": 3690,
      "åħ´è¶£": 3691,
      "åįĵ": 3692,
      "åĴĮåĽ½": 3693,
      "é¬": 3694,
      "ä¿¡çĶ¨": 3695,
      "èħ¾": 3696,
      "äºĭé¡¹": 3697,
      "åĶ¯ä¸Ģ": 3698,
      "èĶ¬èıľ": 3699,
      "åľºæīĢ": 3700,
      "è¿Ŀæ³ķ": 3701,
      "ä¸Ģå®¶": 3702,
      "ä¿¡å¿ĥ": 3703,
      "èĩªæ²»åĮº": 3704,
      "åıĳèĤ²": 3705,
      "çļĦæ°´": 3706,
      "æ¸Ĺ": 3707,
      "å½¼": 3708,
      "éĤĢ": 3709,
      "èĿ": 3710,
      "å¦Ĥæŀľä½ł": 3711,
      "èµ·åĪ°": 3712,
      "çľŁå®ŀ": 3713,
      "å±Ĥæ¬¡": 3714,
      "æŃ»äº¡": 3715,
      "çº¢èī²": 3716,
      "å¿§": 3717,
      "æĸ°èĥ½æºĲ": 3718,
      "åħħæ»¡": 3719,
      "ä¼ļè®¡": 3720,
      "ä¹Łå°±æĺ¯": 3721,
      "æįŁå¤±": 3722,
      "åľ¨ä¸Ģèµ·": 3723,
      "çĽ¸åĲĮ": 3724,
      "å¸¦çĿĢ": 3725,
      "å°±èĥ½": 3726,
      "æ´»æĢ§": 3727,
      "éħįå¥Ĺ": 3728,
      "åį³åı¯": 3729,
      "éĥŃ": 3730,
      "éĽĨä½ĵ": 3731,
      "éĵ¸": 3732,
      "éĤ®": 3733,
      "ä¿Ŀæ¸©": 3734,
      "åŃ¦çĶŁçļĦ": 3735,
      "åľ¨è¿Ļ": 3736,
      "æª": 3737,
      "ãĢĭãĢĬ": 3738,
      "å®ħ": 3739,
      "å£¤": 3740,
      "è®¨è®º": 3741,
      "å®¶çļĦ": 3742,
      "åķĬ": 3743,
      "è¡¥åħħ": 3744,
      "åĲĪéĩĳ": 3745,
      "éĶģ": 3746,
      "ä¸Ģè·¯": 3747,
      "æī«": 3748,
      "æĻ¯åĮº": 3749,
      "ä¸ĢåĲį": 3750,
      "æīĢåľ¨": 3751,
      "å¾Īå¤§çļĦ": 3752,
      "å´ĩ": 3753,
      "å¾Īå¥½çļĦ": 3754,
      "çł´åĿı": 3755,
      "å½¢åĬ¿": 3756,
      "ä¼Ĺå¤ļ": 3757,
      "åĪ¶éĢłä¸ļ": 3758,
      "éĥģ": 3759,
      "å¼Ĥå¸¸": 3760,
      "åĿļåĨ³": 3761,
      "äº©": 3762,
      "å®Įæķ´": 3763,
      "ä½ľä¸ļ": 3764,
      "çłĤ": 3765,
      "å¯º": 3766,
      "æ¸łéģĵ": 3767,
      "è¾£": 3768,
      "èĤª": 3769,
      "éĥ½åľ¨": 3770,
      "å°ıç»Ħ": 3771,
      "åĨľæ°ĳ": 3772,
      "æĲľ": 3773,
      "æıĲåĪ°": 3774,
      "åĲĬ": 3775,
      "çĻ½çĻľé£İçļĦ": 3776,
      "èĦĤèĤª": 3777,
      "äººçī©": 3778,
      "è¡Įä¸ļçļĦ": 3779,
      "åĬŁæķĪ": 3780,
      "æ¶Īéĺ²": 3781,
      "æĹ¶çļĦ": 3782,
      "è³ĩ": 3783,
      "æĻ®éģį": 3784,
      "å¿«ä¹Ĳ": 3785,
      "æ¡Īä»¶": 3786,
      "åĬŀåħ¬å®¤": 3787,
      "è¿Ī": 3788,
      "å®Ŀå®Ŀ": 3789,
      "å·¡": 3790,
      "ä¸Ĭä¸ĭ": 3791,
      "æĻ¨": 3792,
      "æĤŁ": 3793,
      "çīµ": 3794,
      "åĳĪçİ°": 3795,
      "ä¸¦": 3796,
      "åīįçļĦ": 3797,
      "èį¯åĵģ": 3798,
      "åįĹäº¬": 3799,
      "æľīåĪ©äºİ": 3800,
      "èĬĤçĽ®": 3801,
      "è§Ĵèī²": 3802,
      "é«ĺæ¸©": 3803,
      "éĺĢ": 3804,
      "æĲº": 3805,
      "ç²Ĺ": 3806,
      "çľ¼çĿ": 3807,
      "åľ¨çº¿": 3808,
      "è§Ħå¾ĭ": 3809,
      "åİŁçĲĨ": 3810,
      "æ£ĢéªĮ": 3811,
      "æ¬£": 3812,
      "å¤©æ´¥": 3813,
      "å¾Īå¤ļäºº": 3814,
      "ä¼¤å®³": 3815,
      "å¥ı": 3816,
      "çĻ¾åĪĨ": 3817,
      "åıĳä½ľ": 3818,
      "è®ĵ": 3819,
      "ä¹Łèĥ½": 3820,
      "è¿ĺåı¯ä»¥": 3821,
      "åºĶæĢ¥": 3822,
      "ç¬¬äºĶ": 3823,
      "ä¿Ŀåģ¥": 3824,
      "éĵº": 3825,
      "éħ¯": 3826,
      "æĦŁåıĹ": 3827,
      "æĸ°åĨł": 3828,
      "çĽ¾": 3829,
      "è¨Ń": 3830,
      "é©¬åħĭæĢĿ": 3831,
      "çĪ¸": 3832,
      "ä¿¡æģ¯åĮĸ": 3833,
      "äºĨä¸Ģä¸ª": 3834,
      "è¢ĭ": 3835,
      "å¿ĹæĦ¿": 3836,
      "çļĦæĥħåĨµä¸ĭ": 3837,
      "åĳ¨æľŁ": 3838,
      "å¸ĤåľºçļĦ": 3839,
      "æľīåı¯èĥ½": 3840,
      "å¿Į": 3841,
      "åĪĽå»º": 3842,
      "æĭĽçĶŁ": 3843,
      "åľ¨æŃ¤": 3844,
      "ç§Ĵ": 3845,
      "ç§įæ¤į": 3846,
      "ç¡«": 3847,
      "å¾ŀ": 3848,
      "åĩ¯": 3849,
      "æŀĿ": 3850,
      "å¾Īéļ¾": 3851,
      "æ»ĭ": 3852,
      "1000": 3853,
      "çĪ¶äº²": 3854,
      "è¸ı": 3855,
      "ä¸įå¥½": 3856,
      "ä½ıæĪ¿": 3857,
      "æľĢè¿ĳ": 3858,
      "ä¼łæī¿": 3859,
      "èĥĢ": 3860,
      "å¹¶ä¸įæĺ¯": 3861,
      "ä¸¤ç§į": 3862,
      "å°±è¦ģ": 3863,
      "åŃ¦ä½į": 3864,
      "çļĦçĥŃ": 3865,
      "æĭĴç»Ŀ": 3866,
      "åŃ¦åİĨ": 3867,
      "åħįè´¹": 3868,
      "éĻķ": 3869,
      "æĪªèĩ³": 3870,
      "åĪĨå¸ĥ": 3871,
      "æ·»åĬł": 3872,
      "åħ¨çľģ": 3873,
      "çĿĢåĬĽ": 3874,
      "æĥħåĨµä¸ĭ": 3875,
      "æ¼Ķåĳĺ": 3876,
      "ä¾ĿçĦ¶": 3877,
      "è¡ĮçļĦ": 3878,
      "åħ»èĢģ": 3879,
      "æĮĸ": 3880,
      "æľºåľº": 3881,
      "è½¬åıĺ": 3882,
      "é«ĺè´¨éĩıåıĳå±ķ": 3883,
      "æ³ķåĽ½": 3884,
      "å®īåħ¨çĶŁäº§": 3885,
      "å·¥åİĤ": 3886,
      "äººæ°ĳå¸ģ": 3887,
      "çļĦæľįåĬ¡": 3888,
      "å¼ĺ": 3889,
      "!âĢĿ": 3890,
      "çĤ¸": 3891,
      "æĦıæĢĿ": 3892,
      "éĢĤçĶ¨äºİ": 3893,
      "éĴĻ": 3894,
      "åĩĢåĮĸ": 3895,
      "æĺ¯ä¸ŃåĽ½": 3896,
      "æĭħä»»": 3897,
      "äºĳåįĹ": 3898,
      "éģ¸": 3899,
      "åĪĨç±»": 3900,
      "çļĦåīį": 3901,
      "å½¹": 3902,
      "åĽŀåºĶ": 3903,
      "éŁ©åĽ½": 3904,
      "ç§ī": 3905,
      "æ¯įäº²": 3906,
      "åī²": 3907,
      "å°ıçļĦ": 3908,
      "ç¦»å¼Ģ": 3909,
      "éļľç¢į": 3910,
      "ä¸Ļ": 3911,
      "éĢĥ": 3912,
      "å®ļæľŁ": 3913,
      "å®£å¸ĥ": 3914,
      "çİ°æľī": 3915,
      "çłĶç©¶çĶŁ": 3916,
      "åħļä¸Ńå¤®": 3917,
      "éĶ¦": 3918,
      "åįĢ": 3919,
      "çĶµè¯Ŀ": 3920,
      "çħ®": 3921,
      "ä¸įåĨį": 3922,
      "æ²Ī": 3923,
      "æ°Ķä½ĵ": 3924,
      "è¾½": 3925,
      "æĲ¬": 3926,
      "èģĮè´£": 3927,
      "ä¹ĭä¸Ń": 3928,
      "çī©çĲĨ": 3929,
      "å«Į": 3930,
      "åĬłä¸Ĭ": 3931,
      "è¯ģåĪ¸": 3932,
      "åĪ°åºķ": 3933,
      "è¯´éģĵ": 3934,
      "æ»¡æĦı": 3935,
      "ä¸įç®¡": 3936,
      "éĤ¦": 3937,
      "å¾Īå¥½": 3938,
      "èĤ¿çĺ¤": 3939,
      "è¾°": 3940,
      "38": 3941,
      "èĩŃ": 3942,
      "åĲįåŃĹ": 3943,
      "æ¨£": 3944,
      "é¢Ħè®¡": 3945,
      "ä¸Ńåħ±": 3946,
      "éĻµ": 3947,
      "é»ĳèī²": 3948,
      "èĴĤ": 3949,
      "åħħåĪĨåıĳæĮ¥": 3950,
      "å¹¼åĦ¿": 3951,
      "ä¸ĢæĿ¡": 3952,
      "æ°¸è¿ľ": 3953,
      "ä¸Ģåı¥": 3954,
      "èĻķ": 3955,
      "çļĨ": 3956,
      "æĺ¯çĶ±": 3957,
      "ä¸ĵéĹ¨": 3958,
      "è¡Ģæ¶²": 3959,
      "åºĶå¯¹": 3960,
      "èħ¿": 3961,
      "ä¹Łè¦ģ": 3962,
      "åįģå¹´": 3963,
      "è¯ļä¿¡": 3964,
      "çºµ": 3965,
      "ä¸ĬäºĨ": 3966,
      "è¾ŀ": 3967,
      "éĥ¨ä½į": 3968,
      "å°Ŀ": 3969,
      "å§ľ": 3970,
      "éĹ®é¢ĺçļĦ": 3971,
      "èį£èªī": 3972,
      "ä¸ĵé¡¹": 3973,
      "éĵ¶å±ĳ": 3974,
      "æĢª": 3975,
      "èµĭ": 3976,
      "æľīåĵªäºĽ": 3977,
      "çĽĨ": 3978,
      "ç¨Ģ": 3979,
      "éĿĴæĺ¥": 3980,
      "æ¹ĸåĮĹ": 3981,
      "çŃīå¥ĸ": 3982,
      "çĸı": 3983,
      "èµĶåģ¿": 3984,
      "å¯¸": 3985,
      "ä¿¡åı·": 3986,
      "Ġ(": 3987,
      "ç®¡éģĵ": 3988,
      "å¯¹è±¡": 3989,
      "è¨Ī": 3990,
      "éĵ¶å±ĳçĹħ": 3991,
      "ãĢĤãĢĬ": 3992,
      "è¯ĳ": 3993,
      "ç¥¥": 3994,
      "ä¼ĺèī¯": 3995,
      "å¸¦é¢Ĩ": 3996,
      "åĽ½å®¶çº§": 3997,
      "å¤©çļĦ": 3998,
      "æĺĨ": 3999,
      "è°¨": 4000,
      "å®ĺç½ĳ": 4001,
      "é³": 4002,
      "å°±åĥı": 4003,
      "çºł": 4004,
      "é¢ĨåŁŁçļĦ": 4005,
      "å²ģçļĦ": 4006,
      "çľ¼çĿĽ": 4007,
      "çºº": 4008,
      "å¥³äºº": 4009,
      "åģ¥åħ¨": 4010,
      "é½¿": 4011,
      "æĦıåĳ³çĿĢ": 4012,
      "éĤ£ä¸ª": 4013,
      "ç³»ç»ŁçļĦ": 4014,
      "æĥľ": 4015,
      "åŁĥ": 4016,
      "åħ©": 4017,
      "ä¸Ńèį¯": 4018,
      "èĩ´åĬĽäºİ": 4019,
      "è¾ĥä¸º": 4020,
      "å¤±åİ»": 4021,
      "æ¯ķä¸ļçĶŁ": 4022,
      "èľľ": 4023,
      "è»Ĭ": 4024,
      "äººå¤§": 4025,
      "éĩįçļĦ": 4026,
      "ä¼ĺçĤ¹": 4027,
      "å¿į": 4028,
      "åĳ¨åĽ´": 4029,
      "æĽ´ä¸º": 4030,
      "åĩ¤": 4031,
      "ç¼Ŀ": 4032,
      "2013": 4033,
      "æľĪç»ı": 4034,
      "æĹ¶åĪ»": 4035,
      "è¾ĸ": 4036,
      "èĢģäºº": 4037,
      "æĪĺäºī": 4038,
      "ç´¯è®¡": 4039,
      "è¾ĥå¤§": 4040,
      "æ©¡èĥ¶": 4041,
      "è§£éĩĬ": 4042,
      "æľĢå¥½çļĦ": 4043,
      "éļıåĲİ": 4044,
      "åŁºäºİ": 4045,
      "åĮĢ": 4046,
      "%;": 4047,
      "åħ¨ä¼ļ": 4048,
      "å®ļä½į": 4049,
      "è§ĦåĪĻ": 4050,
      "33": 4051,
      "å·¥ä½ľäººåĳĺ": 4052,
      "åŃ©åŃĲçļĦ": 4053,
      "èĩªä¿¡": 4054,
      "åħ±åĴĮåĽ½": 4055,
      "59": 4056,
      "æĭĨ": 4057,
      "è¿ĺä¼ļ": 4058,
      "æ¶ĪåĮĸ": 4059,
      "æ°¯": 4060,
      "æ»¨": 4061,
      "å®¶åħ·": 4062,
      "éĻ¢éķ¿": 4063,
      "å¤©ä¸ĭ": 4064,
      "æµģåĬ¨": 4065,
      "èĭ±è¯Ń": 4066,
      "ä¸ŃåĽ½çļĦ": 4067,
      "åħģ": 4068,
      "åĮ»èį¯": 4069,
      "èĲ¥ä¸ļ": 4070,
      "åıĤèĢĥ": 4071,
      "éĺ³åħī": 4072,
      "é«ĺç«¯": 4073,
      "é¥±": 4074,
      "åĴĮç¤¾ä¼ļ": 4075,
      "æĸĩåŃĹ": 4076,
      "åľŁå£¤": 4077,
      "ç¬¬ä¸Ģæ¬¡": 4078,
      "å±¥è¡Į": 4079,
      "å¹³æĹ¶": 4080,
      "èĩªè§ī": 4081,
      "æ¿Ģç´ł": 4082,
      "æ¦Ĥå¿µ": 4083,
      "æıĴ": 4084,
      "è¡¨æ¼Ķ": 4085,
      "èĢĥæł¸": 4086,
      "åºĶçĶ¨äºİ": 4087,
      "åĴĮè°Ĳ": 4088,
      "å·¥ä½ľä¸Ń": 4089,
      "å°Ĩåľ¨": 4090,
      "èĴĻåı¤": 4091,
      "ä»¥ä¸º": 4092,
      "æĿ¥æºĲ": 4093,
      "åĢ¡": 4094,
      "å¤įåĲĪ": 4095,
      "åŃ¤": 4096,
      "æĹģ": 4097,
      "ä½ľèĢħ": 4098,
      "éĥ½è¦ģ": 4099,
      "æľŁå¾ħ": 4100,
      "æ·±åº¦": 4101,
      "åĽ½åĨħå¤ĸ": 4102,
      "éĥ¨ä»¶": 4103,
      "éĺħè¯»": 4104,
      "æ°ĶåĢĻ": 4105,
      "2012": 4106,
      "çªģçĦ¶": 4107,
      "èĸª": 4108,
      "èī¾": 4109,
      "é¡µ": 4110,
      "å®ļçļĦ": 4111,
      "ç«ĭåį³": 4112,
      "çĤĴ": 4113,
      "ç¢ĳ": 4114,
      "æµģéĩı": 4115,
      "çĥĪçļĦ": 4116,
      "æĭĵå±ķ": 4117,
      "è®¤åı¯": 4118,
      "çµĲ": 4119,
      "ä¸Ģæī¹": 4120,
      "æ±ģ": 4121,
      "æĮĩæķ°": 4122,
      "éħįç½®": 4123,
      "åįıåĲĮ": 4124,
      "èĩªåĬ¨åĮĸ": 4125,
      "çº½": 4126,
      "æµĨ": 4127,
      "æ·ĭ": 4128,
      "åľºæ¯ĶèµĽ": 4129,
      "æĦŁè°¢": 4130,
      "äºĮåįģå¤§": 4131,
      "æĹ©æľŁ": 4132,
      "åıĸå¾ĹäºĨ": 4133,
      "ç»ıæµİåıĳå±ķ": 4134,
      "åŃ©åŃĲä»¬": 4135,
      "æĪĴ": 4136,
      "å¤Ħç½ļ": 4137,
      "åĪ¤æĸŃ": 4138,
      "éķ¿çļĦ": 4139,
      "éĩĩè´Ń": 4140,
      "å¯ĨåĪĩ": 4141,
      "çļĦç²¾ç¥ŀ": 4142,
      "éģĭ": 4143,
      "å¦Ļ": 4144,
      "è¾Ī": 4145,
      "åī©": 4146,
      "ç¡ķå£«": 4147,
      "åħĦ": 4148,
      "åįģåĽĽ": 4149,
      "è®¾å¤ĩçļĦ": 4150,
      "ä¸įéĶĻ": 4151,
      "å½°": 4152,
      "ç»ıåħ¸": 4153,
      "åĽ½å¤ĸ": 4154,
      "äººæ°ĳæĶ¿åºľ": 4155,
      "åħ¶æ¬¡": 4156,
      "åŁİä¹¡": 4157,
      "åįĬå¹´": 4158,
      "æµ·å¤ĸ": 4159,
      "è®Ĭ": 4160,
      "å¦Ĥä¸ĭ": 4161,
      "åĲĮæ¯Ķå¢ŀéķ¿": 4162,
      "æķ´åĲĪ": 4163,
      "èĩ£": 4164,
      "ä¼Ļä¼´": 4165,
      "èĥ½éĩı": 4166,
      "æıĲåīį": 4167,
      "èĬ¯": 4168,
      "æĢ»ç»ıçĲĨ": 4169,
      "å¼ķè¿Ľ": 4170,
      "çĮ«": 4171,
      "å½ĵä¸Ń": 4172,
      "èĩ³å°ĳ": 4173,
      "åħ³å¿ĥ": 4174,
      "æĿŃ": 4175,
      "å¾ĹåĪ°äºĨ": 4176,
      "èĢĮä¸į": 4177,
      "èĢķ": 4178,
      "æł¼å±Ģ": 4179,
      "æĶ¶çĽĬ": 4180,
      "æĸ°çĸĨ": 4181,
      "æĳĩ": 4182,
      "æ··åĲĪ": 4183,
      "å¾Īå®¹æĺĵ": 4184,
      "é¸Ł": 4185,
      "å·¥åķĨ": 4186,
      "èħ°": 4187,
      "è®ºæĸĩ": 4188,
      "æķ¸": 4189,
      "å¥ĳ": 4190,
      "åĽŃåĮº": 4191,
      "çĹħä¾ĭ": 4192,
      "çļĦä¸»": 4193,
      "åįļçī©": 4194,
      "ä»°": 4195,
      "æĭħå½ĵ": 4196,
      "å·¥èµĦ": 4197,
      "ä¸Ģä»£": 4198,
      "ç»ŁçŃ¹": 4199,
      "åĽŀæĶ¶": 4200,
      "ä¹Łåľ¨": 4201,
      "åĬłçĽŁ": 4202,
      "ãĢĭ(": 4203,
      "æĢĢåŃķ": 4204,
      "æľīä¸Ģä¸ª": 4205,
      "ä»¥åīį": 4206,
      "çĸ²": 4207,
      "ä½İäºİ": 4208,
      "åĨ²åĩ»": 4209,
      "æĤ¬": 4210,
      "åĪĿå¿ĥ": 4211,
      "çī§": 4212,
      "éķ¿æĹ¶éĹ´": 4213,
      "æĹ©å·²": 4214,
      "æ¡Ĥ": 4215,
      "éªĹ": 4216,
      "éĺ²æ²»": 4217,
      "éº¼": 4218,
      "çļĦåİĨåı²": 4219,
      "æıĲéĨĴ": 4220,
      "åĪ¥": 4221,
      "2010": 4222,
      "åı¯è§ģ": 4223,
      "æ¢¯": 4224,
      "å¤§æķ°æį®": 4225,
      "ç¨į": 4226,
      "å·®å¼Ĥ": 4227,
      "æłĳç«ĭ": 4228,
      "è¯ķçĤ¹": 4229,
      "ç§ĳæĬĢåĪĽæĸ°": 4230,
      "æįŁå®³": 4231,
      "å¹¿è¥¿": 4232,
      "ä¸Ģä½į": 4233,
      "éĢļä¿¡": 4234,
      "75": 4235,
      "éĿ¢åĲĳ": 4236,
      "èī²å½©": 4237,
      "34": 4238,
      "è¤": 4239,
      "æµ·æ´ĭ": 4240,
      "å¤įåħ´": 4241,
      "ä¸Ģå¤©": 4242,
      "åĩºå¸Ń": 4243,
      "è¯´çļĦ": 4244,
      "èĢĥçĶŁ": 4245,
      "æµħ": 4246,
      "éĶ»çĤ¼": 4247,
      "åĲĲ": 4248,
      "æĸ¹ä½į": 4249,
      "æĸĩçī©": 4250,
      "æ£ī": 4251,
      "å¹¶æ²¡æľī": 4252,
      "åŁºåĽł": 4253,
      "åľ°çļĦ": 4254,
      "çĪ·": 4255,
      "æĥĳ": 4256,
      "åīª": 4257,
      "ç»ıæµİç¤¾ä¼ļ": 4258,
      "ç¦»åŃĲ": 4259,
      "çĶ·äºº": 4260,
      "è¯ķç®¡å©´åĦ¿": 4261,
      "äºļæ´²": 4262,
      "çºªå¿µ": 4263,
      "åı¯ä»¥åľ¨": 4264,
      "åĻ¨çļĦ": 4265,
      "æĲŀ": 4266,
      "ä»ªå¼ı": 4267,
      "æĬĢæľ¯çļĦ": 4268,
      "è®©æĪĳä»¬": 4269,
      "åħ¨å¸Ĥ": 4270,
      "æĴŀ": 4271,
      "ä»ĸåľ¨": 4272,
      "çŁĽ": 4273,
      "åį°åĪ·": 4274,
      "å¾Īå¿«": 4275,
      "è¡Ģåİĭ": 4276,
      "æĺ¯æľī": 4277,
      "æ£®æŀĹ": 4278,
      "ä¸įçŁ¥éģĵ": 4279,
      "æŃ£è§Ħ": 4280,
      "è¿Ł": 4281,
      "é¢ģ": 4282,
      "éŃĶ": 4283,
      "é©¾é©¶": 4284,
      "çĲ´": 4285,
      "å§»": 4286,
      "åŁºç¡Ģè®¾æĸ½": 4287,
      "éī´å®ļ": 4288,
      "åĲ¹": 4289,
      "çº¿ä¸Ĭ": 4290,
      "è´¯å½»èĲ½å®ŀ": 4291,
      "ä¿Ĭ": 4292,
      "32": 4293,
      "ä½ĵä¼ļ": 4294,
      "è´§å¸ģ": 4295,
      "æħ¢æĢ§": 4296,
      "éĶĪéĴ¢": 4297,
      "çĽĪ": 4298,
      "æ´»åĬĽ": 4299,
      "åĺ´": 4300,
      "åħ¨åĬĽ": 4301,
      "åįģåħ«": 4302,
      "ç¾İå¥½": 4303,
      "____": 4304,
      "æĹ¥èµ·": 4305,
      "å»·": 4306,
      "åĲĪéĢĤ": 4307,
      "æĪĲçļĦ": 4308,
      "æľºéģĩ": 4309,
      "åĬłçĥŃ": 4310,
      "æĪĳä»¬è¦ģ": 4311,
      "æľīæķĪçļĦ": 4312,
      "ä¸ŃåŃ¦": 4313,
      "ar": 4314,
      "çķª": 4315,
      "åı¸æ³ķ": 4316,
      "ç»´æĮģ": 4317,
      "ä¸ĭåįĪ": 4318,
      "æĽ´æĸ°": 4319,
      "æĥ³åĪ°": 4320,
      "éĻª": 4321,
      "å¤ļæł·": 4322,
      "åĤ¬": 4323,
      "ä¸Ĭæ¶¨": 4324,
      "èĦ¾": 4325,
      "æ¿Ģåħī": 4326,
      "è¥¿å®ī": 4327,
      "å¯Ħ": 4328,
      "æ·Ģ": 4329,
      "æ¢¦è§ģ": 4330,
      "åĩłå¹´": 4331,
      "å¤§éĩıçļĦ": 4332,
      "è¾©": 4333,
      "å¸Ĥå§Ķ": 4334,
      "æķĻèĤ²éĥ¨": 4335,
      "PP": 4336,
      "å±ķè§Ī": 4337,
      "æľĢæĸ°": 4338,
      "ç¢°": 4339,
      "éĮ": 4340,
      "åħ¶å®ĥ": 4341,
      "çī¹æĢ§": 4342,
      "ç»ĦåĲĪ": 4343,
      "é¢¨": 4344,
      "éĽ¾": 4345,
      "æİĺ": 4346,
      "åħļå»º": 4347,
      "æ²Ĵæľī": 4348,
      "æµ¦": 4349,
      "ä¸ĭäºĨ": 4350,
      "æĦ¿æĦı": 4351,
      "ç¡®å®ŀ": 4352,
      "ä¸ĸçķĮä¸Ĭ": 4353,
      "å¯¹æŃ¤": 4354,
      "æĿ¥åĪ°": 4355,
      "èº«ä¸Ĭ": 4356,
      "æĺ¯éĿŀå¸¸": 4357,
      "åĽ½çļĦ": 4358,
      "åįģä¸ī": 4359,
      "ä¹īåĬ¡": 4360,
      "èĳ£äºĭéķ¿": 4361,
      "æĪ¿åľ°äº§": 4362,
      "çĶµåķĨ": 4363,
      "èµ¢å¾Ĺ": 4364,
      "æ°´çļĦ": 4365,
      "åīįè¿Ľ": 4366,
      "çĶ³æĬ¥": 4367,
      "ç¾½": 4368,
      "è£ħä¿®": 4369,
      "37": 4370,
      "æ¸¸å®¢": 4371,
      "æĬ¥åĲį": 4372,
      "ä¸Ģæ®µ": 4373,
      "mm": 4374,
      "åħ¬çĽĬ": 4375,
      "éĶĮ": 4376,
      "å¸¦åĬ¨": 4377,
      "å®ŀéĻħä¸Ĭ": 4378,
      "æıĲåĩºäºĨ": 4379,
      "èĵĦ": 4380,
      "çİ©å®¶": 4381,
      "åħ¸åŀĭ": 4382,
      "éĥ½èĥ½": 4383,
      "äººæķ°": 4384,
      "çļĦçĶŁäº§": 4385,
      "çłĶç©¶éĻ¢": 4386,
      "æħĪ": 4387,
      "éŃĤ": 4388,
      "çĶŁæ´»çļĦ": 4389,
      "èİ·åıĸ": 4390,
      "ä»£è°¢": 4391,
      "ç²¾å½©": 4392,
      "åŃ£åº¦": 4393,
      "48": 4394,
      "åĲĦä½į": 4395,
      "è´¨çļĦ": 4396,
      "æĸ¤": 4397,
      "å¸¦æĿ¥çļĦ": 4398,
      "2011": 4399,
      "è®¸åı¯": 4400,
      "èĬ³": 4401,
      "ç½ĳåıĭ": 4402,
      "æ¢¦æĥ³": 4403,
      "æĬĳåĪ¶": 4404,
      "æ²ĥ": 4405,
      "å°Ĭéĩį": 4406,
      "ç°": 4407,
      "åħ¬å¹³": 4408,
      "æµ©": 4409,
      "åĽ½å®¶çļĦ": 4410,
      "åľ¨ä¸į": 4411,
      "çĻ½èī²": 4412,
      "ç¼ĵè§£": 4413,
      "éĦ": 4414,
      "å½¢æĢģ": 4415,
      "æĶ¿åįı": 4416,
      "ï¿": 4417,
      "ç±»ä¼¼": 4418,
      "æľºåĻ¨äºº": 4419,
      "éĻķè¥¿": 4420,
      "æ¤Ĵ": 4421,
      "å¥Ķ": 4422,
      "åģľæŃ¢": 4423,
      "æ°´æŀľ": 4424,
      "æįĲ": 4425,
      "å¹¶åľ¨": 4426,
      "åĳ½è¿Ĳ": 4427,
      "èĢĥå¯Ł": 4428,
      "äº§ä¸ļéĵ¾": 4429,
      "å®ĹæĹ¨": 4430,
      "æĥħæĦŁ": 4431,
      "æĿĥåĪ©": 4432,
      "äººç¾¤": 4433,
      "åĬ©åĬĽ": 4434,
      "æīĢæľīçļĦ": 4435,
      "ä¸īæĺ¯": 4436,
      "ç²¾åĩĨ": 4437,
      "æīĵå¼Ģ": 4438,
      "èŁ": 4439,
      "åĽ½æ°ĳ": 4440,
      "è§£åĨ³æĸ¹æ¡Ī": 4441,
      "å¤ļåħĥ": 4442,
      "çĶŁåŃĺ": 4443,
      "èİ²": 4444,
      "éĴ»": 4445,
      "çĿ¡çľł": 4446,
      "åīĳ": 4447,
      "ä½¿çĶ¨çļĦ": 4448,
      "çŁ¥è¯Ĩäº§æĿĥ": 4449,
      "å¢ĵ": 4450,
      "åį±æľº": 4451,
      "çŃīçº§": 4452,
      "çĭĤ": 4453,
      "å·¨å¤§": 4454,
      "å®īå¾½": 4455,
      "å½¢æĪĲäºĨ": 4456,
      "ä¹ĭè·¯": 4457,
      "åĲ¦åĪĻ": 4458,
      "æ·ĺ": 4459,
      "åľ°ä¸ĭ": 4460,
      "å°Ĩä¼ļ": 4461,
      "ç»ĨèıĮ": 4462,
      "éģĹä¼ł": 4463,
      "è¾¨": 4464,
      "åį°åº¦": 4465,
      "è®¤å®ļ": 4466,
      "æĪ¿å±ĭ": 4467,
      "ç®Ģç§°": 4468,
      "çŁĽçĽ¾": 4469,
      "ä»Ķ": 4470,
      "åıĳåĬ¨": 4471,
      "äº§éĩı": 4472,
      "çļĦåŁºæľ¬": 4473,
      "ä½ľé£İ": 4474,
      "è¥¿éĥ¨": 4475,
      "åŁİéķĩ": 4476,
      "ç¨¿": 4477,
      "èµ·éĩį": 4478,
      "è§Ĥå¿µ": 4479,
      "æĲı": 4480,
      "ä¸ĭåİ»": 4481,
      "çľģå§Ķ": 4482,
      "åĬ©äºİ": 4483,
      "ä¸įéĶĪéĴ¢": 4484,
      "èµ´": 4485,
      "èĤĸ": 4486,
      "ç´§å¼ł": 4487,
      "éĶĻè¯¯": 4488,
      "è´«åĽ°": 4489,
      "çļĦéľĢæ±Ĥ": 4490,
      "æ¡ĳ": 4491,
      "æİ¨åĩº": 4492,
      "æķ´æĶ¹": 4493,
      "åĬłéĢŁ": 4494,
      "åģļæ³ķ": 4495,
      "65": 4496,
      "èĤ¡ç¥¨": 4497,
      "å¼Ĺ": 4498,
      "å¤§çº¦": 4499,
      "æµ¸": 4500,
      "æĿ¥äºĨ": 4501,
      "å©ļå§»": 4502,
      "çļĦå¤ĸ": 4503,
      "çļĦèĥ½åĬĽ": 4504,
      "å°±ä¸į": 4505,
      "å¤©æ°Ķ": 4506,
      "ï¿½": 4507,
      "çļĦä½¿çĶ¨": 4508,
      "åı¯æĮģç»Ń": 4509,
      "æ°ĳéĹ´": 4510,
      "åĬłéĩį": 4511,
      "ä¸Ńåįİäººæ°ĳ": 4512,
      "é»İ": 4513,
      "èĲ¥éĢł": 4514,
      "å®¶äºº": 4515,
      "åľ°çĲĥ": 4516,
      "åĭĥ": 4517,
      "æłĳèĦĤ": 4518,
      "æīįæĺ¯": 4519,
      "åº·å¤į": 4520,
      "åĦ¿åŃĲ": 4521,
      "åĴĮåıĳå±ķ": 4522,
      "å¥½å¥½": 4523,
      "èģĬ": 4524,
      "çĻ¾å§ĵ": 4525,
      "å°ıåŃ¦": 4526,
      "åĬ¨ä½ľ": 4527,
      "åĮºåĪ«": 4528,
      "æĳ¸": 4529,
      "ç«ŀäºīåĬĽ": 4530,
      "äººåĬĽ": 4531,
      "ç©·": 4532,
      "æĮ¯åħ´": 4533,
      "æıŃ": 4534,
      "æ¡Ĩ": 4535,
      "éķĢ": 4536,
      "æĿ¡ä¾ĭ": 4537,
      "å¤±è´¥": 4538,
      "åĤ³": 4539,
      "åĩŃåĢŁ": 4540,
      "ä¸Ģç³»åĪĹ": 4541,
      "åĴĸ": 4542,
      "åŁĭ": 4543,
      "èĢĮåľ¨": 4544,
      "æĻ°": 4545,
      "åłĨ": 4546,
      "39": 4547,
      "åĲĪæ³ķ": 4548,
      "è½¬ç§»": 4549,
      "çĩķ": 4550,
      "åľ°çĲĨ": 4551,
      "å§¿": 4552,
      "è¾ĥé«ĺ": 4553,
      "åı¤ä»£": 4554,
      "å£°éŁ³": 4555,
      "æŃ¤åīį": 4556,
      "é©¬åħĭæĢĿä¸»ä¹ī": 4557,
      "49": 4558,
      "åķı": 4559,
      "ä¸Ńåįİäººæ°ĳåħ±åĴĮåĽ½": 4560,
      "åīĬ": 4561,
      "åĳ¨å¹´": 4562,
      "å¯Ĩå°ģ": 4563,
      "é«ĺä¸Ń": 4564,
      "æĽ¹": 4565,
      "çĥŃæĥħ": 4566,
      "çļĦä¸Ń": 4567,
      "æĺİçĻ½": 4568,
      "äººæīįåŁ¹åħ»": 4569,
      "55": 4570,
      "äºĨæĪĳ": 4571,
      "å¦¹": 4572,
      "ä¸ĩåĲ¨": 4573,
      "æŁĲäºĽ": 4574,
      "å¦ĩå¥³": 4575,
      "åĴĮåħ¶ä»ĸ": 4576,
      "çĽĳæİ§": 4577,
      "åĬ£": 4578,
      "æĢ§æł¼": 4579,
      "é©±åĬ¨": 4580,
      "éĿĴå°ĳå¹´": 4581,
      "é¸£": 4582,
      "ä¿±ä¹Ĳ": 4583,
      "å»ºè®¾çļĦ": 4584,
      "è¿ĳæĹ¥": 4585,
      "æĶ¹éĿ©å¼ĢæĶ¾": 4586,
      "??": 4587,
      "è¬": 4588,
      "æĺ¯åĽłä¸º": 4589,
      "åŃ¦èĢħ": 4590,
      "ä¸ĵçĶ¨": 4591,
      "åŃķå¦ĩ": 4592,
      "éĩĮéĿ¢": 4593,
      "äºĶå¹´": 4594,
      "æĸĹäºī": 4595,
      "ä¸Ńæľī": 4596,
      "å¾¡": 4597,
      "æľ¬äºº": 4598,
      "åł¡": 4599,
      "å¹»": 4600,
      "åĩºçİ°äºĨ": 4601,
      "æĶ»åĿļ": 4602,
      "è£ķ": 4603,
      "è°ĥçłĶ": 4604,
      "æ¯ıä¸Ģä¸ª": 4605,
      "èŀįåħ¥": 4606,
      "æĭħå¿ĥ": 4607,
      "è§Ħå®ļçļĦ": 4608,
      "ç»Ŀå¯¹": 4609,
      "åħļçļĦäºĮåįģå¤§": 4610,
      "ä¿±ä¹Ĳéĥ¨": 4611,
      "88": 4612,
      "ç½Ĳ": 4613,
      "ç§¯ç´¯": 4614,
      "åĩĮ": 4615,
      "å°Ī": 4616,
      "å¤§èµĽ": 4617,
      "å¯»æī¾": 4618,
      "é¬¼": 4619,
      "ç§įç±»": 4620,
      "åĻª": 4621,
      "è§ĤçĤ¹": 4622,
      "å¸ħ": 4623,
      "æľīä»Ģä¹Ī": 4624,
      "å¤§å¹ħ": 4625,
      "æĽ°": 4626,
      "å¸Ĥæ°ĳ": 4627,
      "è¿ĳæľŁ": 4628,
      "åĽŀåĪ°": 4629,
      "åĽŀçŃĶ": 4630,
      "å®ŀçİ°äºĨ": 4631,
      "çº·çº·": 4632,
      "æ°ĽåĽ´": 4633,
      "ä»ĬåĲİ": 4634,
      "âĹ": 4635,
      "æĹ¥åŃĲ": 4636,
      "ä¸įå¤Ł": 4637,
      "æģ°": 4638,
      "å®¡æŁ¥": 4639,
      "ä¸ªæĢ§": 4640,
      "éĺ²æĬ¤": 4641,
      "åĶ®åĲİ": 4642,
      "çĸ¼çĹĽ": 4643,
      "å¸ĪçĶŁ": 4644,
      "ç½©": 4645,
      "æĶ¹è¿Ľ": 4646,
      "å±ħä½ı": 4647,
      "åĲĪæĪĲ": 4648,
      "æľįè£ħ": 4649,
      "å¸¸å¸¸": 4650,
      "ä¸ĵç§ĳ": 4651,
      "2008": 4652,
      "çĶŁæĢģçİ¯å¢ĥ": 4653,
      "éĹª": 4654,
      "æ¡Į": 4655,
      "ç¦ıå»º": 4656,
      "åįļçī©é¦Ĩ": 4657,
      "å¸«": 4658,
      "ç®Ń": 4659,
      "ä¸ĬåįĪ": 4660,
      "æµ·åįĹ": 4661,
      "éĺŁçļĦ": 4662,
      "èĤ¡ä¸ľ": 4663,
      "å°ıç¼ĸ": 4664,
      "è®ºåĿĽ": 4665,
      "åĨħæ¶µ": 4666,
      "æİ¥ä¸ĭæĿ¥": 4667,
      "å°ĳæķ°": 4668,
      "åĨĽäºĭ": 4669,
      "å¼¯": 4670,
      "åıĳè¾¾": 4671,
      "çĻ½çĻľé£İæĤ£èĢħ": 4672,
      "æĪĲæķĪ": 4673,
      "æľįçĶ¨": 4674,
      "èģĶçĽŁ": 4675,
      "ä¾¿åĪ©": 4676,
      "æĿĥçĽĬ": 4677,
      "çĥĤ": 4678,
      "å¹²åĩĢ": 4679,
      "ä¼ĳæģ¯": 4680,
      "å®ª": 4681,
      "åĴĮå¹³": 4682,
      "åı°æ¹¾": 4683,
      "åħģè®¸": 4684,
      "åħļåĴĮ": 4685,
      "å·¥ç¨ĭå¸Ī": 4686,
      "çĨĬ": 4687,
      "æĻļä¸Ĭ": 4688,
      "èĭ±éĽĦ": 4689,
      "æľīæĹ¶": 4690,
      "ç½ĳä¸Ĭ": 4691,
      "åıĺæĪĲ": 4692,
      "ä¸¥éĩįçļĦ": 4693,
      "æľŁæľĽ": 4694,
      "è¿ĺèĥ½": 4695,
      "æ¯ıæ¬¡": 4696,
      "åĮħåĲ«": 4697,
      "å¼Ģæĭĵ": 4698,
      "çĨ±": 4699,
      "èº«è¾¹": 4700,
      "æĶ¶éĽĨ": 4701,
      "å¼ĺæī¬": 4702,
      "å¤§åŃ¦çĶŁ": 4703,
      "æŁľ": 4704,
      "å©Ĩ": 4705,
      "è´µå·ŀ": 4706,
      "sh": 4707,
      "å¥¥è¿Ĳ": 4708,
      "éļĲæĤ£": 4709,
      "ä¸Ģå¸¦": 4710,
      "åħ¬ä¼Ĺ": 4711,
      "åıįå¤į": 4712,
      "éĸĢ": 4713,
      "æĻĴ": 4714,
      "å£³": 4715,
      "ç¡®è®¤": 4716,
      "å²Ń": 4717,
      "éĿĴå²Ľ": 4718,
      "åĮĹäº¬å¸Ĥ": 4719,
      "èĮĥåĽ´åĨħ": 4720,
      "äººä¸º": 4721,
      "è§Ģ": 4722,
      "å®ļåĪ¶": 4723,
      "éĽĨæĪĲ": 4724,
      "éĻĦè¿ĳ": 4725,
      "çĽ´åĪ°": 4726,
      "æ¯ģ": 4727,
      "æī§æ³ķ": 4728,
      "è¦ĭ": 4729,
      "çĶµæľº": 4730,
      "æĸ°å¢ŀ": 4731,
      "åı¯ä»¥è¯´": 4732,
      "å½±çīĩ": 4733,
      "çºªå¾ĭ": 4734,
      "èİ·å¾ĹäºĨ": 4735,
      "æ¶ĪéĻ¤": 4736,
      "å¼·": 4737,
      "çĶµèĦĳ": 4738,
      "æ°¢": 4739,
      "æĶ¾å¼ĥ": 4740,
      "æ¯ıä¸ªäºº": 4741,
      "åıįå¯¹": 4742,
      "æĺ¥èĬĤ": 4743,
      "æħ¢æħ¢": 4744,
      "ä¸įäºĨ": 4745,
      "èĤºçĤİ": 4746,
      "çĽ¸ç»ĵåĲĪ": 4747,
      "è®°å¿Ĩ": 4748,
      "ä¹Ļçĥ¯": 4749,
      "å°İ": 4750,
      "æ¸¡": 4751,
      "çº²": 4752,
      "ç©ºè°ĥ": 4753,
      "åıĳçļĦ": 4754,
      "å¸¸è§ģçļĦ": 4755,
      "æ³³": 4756,
      "æ»ļ": 4757,
      "åŃĿ": 4758,
      "ä¸īåĪĨ": 4759,
      "éĥ¨éķ¿": 4760,
      "çĸ¹": 4761,
      "è¶³å¤Ł": 4762,
      "åı¦ä¸Ģæĸ¹éĿ¢": 4763,
      "ä¸§": 4764,
      "æ¢Ŀ": 4765,
      "çłĶç©¶æīĢ": 4766,
      "ä»¥ä¸ĬçļĦ": 4767,
      "èģĮä¸ļæķĻèĤ²": 4768,
      "æºª": 4769,
      "ç«ŀèµĽ": 4770,
      "èĤ¡ä»½æľīéĻĲåħ¬åı¸": 4771,
      "ä¼Ĳ": 4772,
      "ä¸Ģçº§": 4773,
      "æĮ¤": 4774,
      "æľĢä½İ": 4775,
      "æīİå®ŀ": 4776,
      "åıĳè¡Į": 4777,
      "æŃ¤æĹ¶": 4778,
      "åĩĿèģļ": 4779,
      "å¨ĺ": 4780,
      "2023": 4781,
      "çĨŁæĤī": 4782,
      "ç´§å¯Ĩ": 4783,
      "çļĦåŁºç¡Ģä¸Ĭ": 4784,
      "åħ¬åĳĬ": 4785,
      "åĵ²åŃ¦": 4786,
      "çĻ¾åĪĨçĤ¹": 4787,
      "éĿŀæ³ķ": 4788,
      "ä¼łç»ŁæĸĩåĮĸ": 4789,
      "å·¢": 4790,
      "è¿Ļå°±æĺ¯": 4791,
      "ä¹Łå°±": 4792,
      "çī©åĵģ": 4793,
      "æĢİæł·": 4794,
      "ä¹Łå¾Ī": 4795,
      "èĢ¶": 4796,
      "ãĢį,": 4797,
      "çĦĬæİ¥": 4798,
      "è¿ĽçĲĥ": 4799,
      "æ¼Ĥ": 4800,
      "è¾ĵéĢģ": 4801,
      "çĽ²": 4802,
      "åİ¦": 4803,
      "ä¸ľåĮĹ": 4804,
      "é¹ı": 4805,
      "é«ĺäºİ": 4806,
      "ä¸īå¤§": 4807,
      "åĨ·åį´": 4808,
      "ç«ĭè¶³": 4809,
      "èĬĤçº¦": 4810,
      "é¢Ĺç²Ĵ": 4811,
      "çļĦåİŁåĪĻ": 4812,
      "é¢Ħç®Ĺ": 4813,
      "æ¡¶": 4814,
      "éĤ»": 4815,
      "æĽ´å¥½åľ°": 4816,
      "å½±è§Ĩ": 4817,
      "è®©æĪĳ": 4818,
      "æħ°": 4819,
      "ç£·": 4820,
      "åĲĮåŃ¦ä»¬": 4821,
      "åļ": 4822,
      "åŀĤ": 4823,
      "å¯ĵ": 4824,
      "æ¡Īä¾ĭ": 4825,
      "äº§çĶŁçļĦ": 4826,
      "å¥īçĮ®": 4827,
      "ä¼ĺåħĪ": 4828,
      "æĪĺæĸĹ": 4829,
      "æĢĿè·¯": 4830,
      "åħĨ": 4831,
      "é¡ŀ": 4832,
      "åħļç»Ħç»ĩ": 4833,
      "åĩºåİ»": 4834,
      "èªį": 4835,
      "çĶ·åŃĲ": 4836,
      "âĢķ": 4837,
      "ä¸ªçĻ¾åĪĨçĤ¹": 4838,
      "å¤§ä¼Ĺ": 4839,
      "è´º": 4840,
      "çľĭçľĭ": 4841,
      "çĶ¨æ°´": 4842,
      "åĨ¶": 4843,
      "æĭĮ": 4844,
      "åĪĻæĺ¯": 4845,
      "éĩĩè®¿": 4846,
      "èĪªå¤©": 4847,
      "æľīå®³": 4848,
      "åĮ¹": 4849,
      "å°±åľ¨": 4850,
      "åľ°åĮºçļĦ": 4851,
      "åŃŁ": 4852,
      "èī³": 4853,
      "åħ±æľī": 4854,
      "åĵªéĩĮ": 4855,
      "èĢģå¹´äºº": 4856,
      "åĬĽåĴĮ": 4857,
      "æŁ´": 4858,
      "è¥¿æĸ¹": 4859,
      "çĽ´æĴŃ": 4860,
      "çĽ¸åºĶçļĦ": 4861,
      "99": 4862,
      "èĤ©": 4863,
      "åīįåĪĹ": 4864,
      "èĬĿ": 4865,
      "åĮºçļĦ": 4866,
      "é£İæľº": 4867,
      "ä¼łæĦŁ": 4868,
      "åĩºåıĳ": 4869,
      "æĸĩèīº": 4870,
      "æĺĤ": 4871,
      "åīįæĻ¯": 4872,
      "æĥ³è±¡": 4873,
      "çĸ¾çĹħçļĦ": 4874,
      "ä¹Łåı¯": 4875,
      "åĩºæĿ¥çļĦ": 4876,
      "æ··åĩĿ": 4877,
      "åĸ®": 4878,
      "åĿĩåĮĢ": 4879,
      "èĪĴéĢĤ": 4880,
      "åī¯ä¸»ä»»": 4881,
      "çıŃåŃĲ": 4882,
      "æ¯ķç«Ł": 4883,
      "èĪŀåı°": 4884,
      "çļĦé£Łçī©": 4885,
      "åĿª": 4886,
      "èĦ±è´«": 4887,
      "çĶ¨éĢĶ": 4888,
      "æĪĸè®¸": 4889,
      "åķ¡": 4890,
      "å®ĥæĺ¯": 4891,
      "éĢıæĺİ": 4892,
      "çĸ«æĥħéĺ²æİ§": 4893,
      "ä¸ļç»©": 4894,
      "å¯Ĩåº¦": 4895,
      "å¤¹": 4896,
      "åĩıè½»": 4897,
      "400": 4898,
      "çĹķ": 4899,
      "èµł": 4900,
      "éĢļéģĵ": 4901,
      "ä½Ĩåľ¨": 4902,
      "çĮĽ": 4903,
      "è´¤": 4904,
      "çĽ¸åħ³çļĦ": 4905,
      "å·¨å¤§çļĦ": 4906,
      "ç¡®è¯Ĭ": 4907,
      "éĨ«": 4908,
      "ä¸ĢåĢĭ": 4909,
      "éĭ": 4910,
      "æĿĳæ°ĳ": 4911,
      "åĩºè¡Ģ": 4912,
      "è¿ĩæ»¤": 4913,
      "2009": 4914,
      "æµ´": 4915,
      "éķ¿æ±Ł": 4916,
      "æº«": 4917,
      "åĮ»å¸Ī": 4918,
      "éĢĤçĶ¨": 4919,
      "éĺ´éģĵ": 4920,
      "è¼ĥ": 4921,
      "æĹłè®ºæĺ¯": 4922,
      "éģµå®Ī": 4923,
      "æ¸©æļĸ": 4924,
      "è¸ª": 4925,
      "çĥŃæ°´": 4926,
      "è§Ĩè§ī": 4927,
      "åºŁæ°Ķ": 4928,
      "ä¸ºæł¸å¿ĥ": 4929,
      "æĢ§è´¨": 4930,
      "æĸ°æĹ¶ä»£ä¸ŃåĽ½çī¹èī²ç¤¾ä¼ļä¸»ä¹ī": 4931,
      "èĢĢ": 4932,
      "çĶŁèĤ²": 4933,
      "éĶ¡": 4934,
      "åĪĽæĦı": 4935,
      "ä¸ºå®¢æĪ·": 4936,
      "èµĦè´¨": 4937,
      "æĥ³æ³ķ": 4938,
      "ä¼łç»ŁçļĦ": 4939,
      "ä¹Łæ²¡æľī": 4940,
      "äººæ°ĳç¾¤ä¼Ĺ": 4941,
      "é»Ħéĩĳ": 4942,
      "çľĭæĿ¥": 4943,
      "ç²¾åº¦": 4944,
      "é¤Ĳé¥®": 4945,
      "de": 4946,
      "æĮĩæĮ¥": 4947,
      "éĻ¶çĵ·": 4948,
      "æľ´": 4949,
      "æľºåºĬ": 4950,
      "æįķ": 4951,
      "æĽ´é«ĺ": 4952,
      "è¾ĥä½İ": 4953,
      "å¥³åŃĲ": 4954,
      "æ¸ħæĻ°": 4955,
      "åħ»æ®ĸ": 4956,
      "åĨħå¤ĸ": 4957,
      "æķĻç»ĥ": 4958,
      "åįıåĬ©": 4959,
      "ç¦ģæŃ¢": 4960,
      "å®¶éĩĮ": 4961,
      "éħ¶": 4962,
      "çĹħçļĦ": 4963,
      "æĶ¯åĩº": 4964,
      "ä¸Ģæĸ¹éĿ¢": 4965,
      "è°Ĭ": 4966,
      "çĲĨäºĭ": 4967,
      "éŃı": 4968,
      "çĶµæ°Ķ": 4969,
      "ä¿¡å¿µ": 4970,
      "åĳ¨è¾¹": 4971,
      "æ±Łè¥¿": 4972,
      "åĴĮæľįåĬ¡": 4973,
      "æĮº": 4974,
      "èĩªè¡Į": 4975,
      "éĢłåŀĭ": 4976,
      "ä¸¤å¹´": 4977,
      "æľīåħ³éĥ¨éĹ¨": 4978,
      "å½»åºķ": 4979,
      "pp": 4980,
      "éĥ½åı¯ä»¥": 4981,
      "æĤ¦": 4982,
      "åĽ¾çīĩ": 4983,
      "å¾ĭå¸Ī": 4984,
      "éĴ¢éĵģ": 4985,
      "åıĳè¨Ģ": 4986,
      "ç¬¬ä¸Ģä¸ª": 4987,
      "46": 4988,
      "èµ«": 4989,
      "çļĦä¸ĵä¸ļ": 4990,
      "ä¸įçĶ¨": 4991,
      "çĸ«èĭĹ": 4992,
      "è¾Ĳ": 4993,
      "æİĪæĿĥ": 4994,
      "åıĤè§Ĥ": 4995,
      "ç»Īäºİ": 4996,
      "è®²è§£": 4997,
      "èµ¤": 4998,
      "åĽłçĤº": 4999,
      "ç¬¬åħŃ": 5000,
      "ç©Ĩ": 5001,
      "èĲ¬": 5002,
      "åłµ": 5003,
      "ç¶²": 5004,
      "æĺ¯ä¸ª": 5005,
      "åģļäºĨ": 5006,
      "éĤĵ": 5007,
      "ä¹Łè®¸": 5008,
      "åİĮ": 5009,
      "é¢ĸ": 5010,
      "å¯¹æīĭ": 5011,
      "åĲįç§°": 5012,
      "é¡¾å®¢": 5013,
      "èľĤ": 5014,
      "è¹Ī": 5015,
      "æĺ¨": 5016,
      "ä¸įä½Ĩ": 5017,
      "éłŃ": 5018,
      "çļĦä¸ĢäºĽ": 5019,
      "åĴĸåķ¡": 5020,
      "çļĦä¸ŃåĽ½": 5021,
      "åīįå¾Ģ": 5022,
      "èµ°åĲĳ": 5023,
      "æĭĸ": 5024,
      "æ°ĳçĶŁ": 5025,
      "ç¾¤ä½ĵ": 5026,
      "æįŁä¼¤": 5027,
      "..": 5028,
      "æĺ¯æľĢ": 5029,
      "çĶ±æŃ¤": 5030,
      "å¸ĪèĮĥ": 5031,
      "åįłåľ°": 5032,
      "éľ¸": 5033,
      "èĭ¹": 5034,
      "ä¸ŃåĮ»èį¯": 5035,
      "ä»¥åħį": 5036,
      "çħĮ": 5037,
      "è¾ħåĬ©": 5038,
      "å¸¶": 5039,
      "çĶ¨èį¯": 5040,
      "è¿Ļä¹Łæĺ¯": 5041,
      "æĸ°åĮº": 5042,
      "é¡Į": 5043,
      "å¿ħçĦ¶": 5044,
      "åĲĪçī©": 5045,
      "å¼ºå¤§": 5046,
      "åĻ¨æ¢°": 5047,
      "ç«Ļåľ¨": 5048,
      "åİļçļĦ": 5049,
      "ä¸ĵæ³¨": 5050,
      "éŀĭ": 5051,
      "çĶ¨æĿ¥": 5052,
      "æĹ¥çĽĬ": 5053,
      "å¹¿åľº": 5054,
      "åį¢": 5055,
      "ä¿®å¤į": 5056,
      "åįĥä¸ĩ": 5057,
      "å½ķåıĸ": 5058,
      "åįľ": 5059,
      "å¢ŀéĢŁ": 5060,
      "å¥¹ä»¬": 5061,
      "çļĦæķĪæŀľ": 5062,
      "è´¢å¯Į": 5063,
      "ç·ļ": 5064,
      "æŁ³": 5065,
      "ä¼ĳéĹ²": 5066,
      "æľīåĬ©äºİ": 5067,
      "æĸ¹éĴĪ": 5068,
      "ä¸ľæĸ¹": 5069,
      "åł±": 5070,
      "æĻ¯è§Ĥ": 5071,
      "æķ¦": 5072,
      "åĪĨç¦»": 5073,
      "è·¯çº¿": 5074,
      "åĽ¾ä¹¦": 5075,
      "æľīåĬĽ": 5076,
      "ä¸ŃéĹ´": 5077,
      "å¿ĥéĩĮ": 5078,
      "ä¸īè§Ĵ": 5079,
      "åľ°éĿ¢": 5080,
      "å¾Īæľī": 5081,
      "æľµ": 5082,
      "æĮ¡": 5083,
      "èĭ¹æŀľ": 5084,
      "å°±æľī": 5085,
      "å±±è¥¿": 5086,
      "æĤł": 5087,
      "å°½å¿«": 5088,
      "åłª": 5089,
      "å¼ķèµ·çļĦ": 5090,
      "æĪĳä»¬åľ¨": 5091,
      "èµĽäºĭ": 5092,
      "ä¸ĬéĿ¢": 5093,
      "åģļçļĦ": 5094,
      "å¥³åĦ¿": 5095,
      "çĶŁäº§çļĦ": 5096,
      "ä½ıå®ħ": 5097,
      "æĪĸæĺ¯": 5098,
      "è¥¿çıŃ": 5099,
      "åī¯ä¹¦è®°": 5100,
      "åıĳæĺİ": 5101,
      "å¯¼åĲĳ": 5102,
      "æİ¥è¿ĳ": 5103,
      "å·©": 5104,
      "åĿĬ": 5105,
      "è¿ĺåľ¨": 5106,
      "è¯ĨåĪ«": 5107,
      "éĴ¢ç®¡": 5108,
      "å¤§å°ı": 5109,
      "çļĩå¸Ŀ": 5110,
      "æĬĽ": 5111,
      "èįĴ": 5112,
      "è¢Ń": 5113,
      "æ¶ĪèĢĹ": 5114,
      "äº§ä¸ļåıĳå±ķ": 5115,
      "æĬķèµĦèĢħ": 5116,
      "å·®è·Ŀ": 5117,
      "çļĦç®¡çĲĨ": 5118,
      "å¾®ä¿¡": 5119,
      "åį°è±¡": 5120,
      "åºĻ": 5121,
      "ç§°åı·": 5122,
      "äºĭå®ŀä¸Ĭ": 5123,
      "è¥¿çıŃçīĻ": 5124,
      "çļĦåħ³éĶ®": 5125,
      "ä¸įçŁ¥": 5126,
      "åĬ¨æĢģ": 5127,
      "äºĪä»¥": 5128,
      "äººå·¥æĻºèĥ½": 5129,
      "åģ·": 5130,
      "æ³ķæ²»": 5131,
      "èĥģ": 5132,
      "æ£Ģå¯Ł": 5133,
      "æµĵåº¦": 5134,
      "èĥº": 5135,
      "èĥĸ": 5136,
      "è«ĭ": 5137,
      "ç¼Ĩ": 5138,
      "å±Ģéĥ¨": 5139,
      "ä½ĵåĨħ": 5140,
      "èĲĿ": 5141,
      "æķ´çĲĨ": 5142,
      "ç»´åº¦": 5143,
      "è¦ģç´ł": 5144,
      "å¤ļå®¶": 5145,
      "åĪĨéħį": 5146,
      "èĢĮä¸įæĺ¯": 5147,
      "58": 5148,
      "åľºæĻ¯": 5149,
      "æĦıå¤§åĪ©": 5150,
      "æĶ¾åħ¥": 5151,
      "çĪ±çļĦ": 5152,
      "åĩºåı°": 5153,
      "è¿ĩäºİ": 5154,
      "åĲĮæĦı": 5155,
      "æıĲé«ĺäºĨ": 5156,
      "çĹĽèĭ¦": 5157,
      "è¦ģæľī": 5158,
      "é«ĺèĢĥ": 5159,
      "ä¸ĵé¢ĺ": 5160,
      "ä¹¦æ³ķ": 5161,
      "çļĦè®¾è®¡": 5162,
      "çļĦçİ¯å¢ĥ": 5163,
      "äºĭåĬ¡": 5164,
      "ä¸¤äºº": 5165,
      "æĺ¯å¯¹": 5166,
      "å¹´åºķ": 5167,
      "ä¼ļåľ¨": 5168,
      "å·¥äºº": 5169,
      "æ¶¯": 5170,
      "å¤Ħç½®": 5171,
      "æĳĺ": 5172,
      "åİ¨": 5173,
      "æĹ¥çļĦ": 5174,
      "è¯¾åłĤ": 5175,
      "çģµæ´»": 5176,
      "ä¸įå¾Ĺä¸į": 5177,
      "æĽ´æľī": 5178,
      "ä¸įæĺĵ": 5179,
      "èµļ": 5180,
      "å¹¶éĿŀ": 5181,
      "or": 5182,
      "èĺ": 5183,
      "å¤ļå¹´çļĦ": 5184,
      "ä¾Ŀæīĺ": 5185,
      "æĽ¸": 5186,
      "æ±¡æ°´å¤ĦçĲĨ": 5187,
      "ä¸ŃåĽ½äººæ°ĳ": 5188,
      "çº¿è·¯": 5189,
      "æķħéļľ": 5190,
      "åİĺ": 5191,
      "æ¾³å¤§åĪ©": 5192,
      "å½¼æŃ¤": 5193,
      "çŃīåľ°": 5194,
      "æ¿Ģåıĳ": 5195,
      "å¼¥": 5196,
      "åĽ½å®¶åĴĮ": 5197,
      "æ··åĩĿåľŁ": 5198,
      "æ¸´": 5199,
      "åĽ¢ä½ĵ": 5200,
      "çººç»ĩ": 5201,
      "çŃĽ": 5202,
      "ä»ĸåĢĳ": 5203,
      "åĬŁçİĩ": 5204,
      "çħ§çīĩ": 5205,
      "çŃĸçķ¥": 5206,
      "è¿Ľå±ķ": 5207,
      "è£Ŀ": 5208,
      "æĢ»ç»Ł": 5209,
      "å¯Įæľī": 5210,
      "æ¿ĢåĬ±": 5211,
      "èį¡": 5212,
      "çµ¦": 5213,
      "è¾Ĳå°Ħ": 5214,
      "ãĢģâĢľ": 5215,
      "æĹłäºº": 5216,
      "ç§ĺä¹¦": 5217,
      "æ¯ħ": 5218,
      "éĥİ": 5219,
      "ä¸Ī": 5220,
      "æĿ±": 5221,
      "å¹¿ä¸ľçľģ": 5222,
      "æ³ª": 5223,
      "éľį": 5224,
      "äºĴåĬ¨": 5225,
      "ä¸»ç®¡éĥ¨éĹ¨": 5226,
      "åľ¨è¿Ļä¸ª": 5227,
      "é¤Ĭ": 5228,
      "æĿŃå·ŀ": 5229,
      "è¡ĵ": 5230,
      "æīĢéľĢ": 5231,
      "èĥļ": 5232,
      "èģļçĦ¦": 5233,
      "çŁ©": 5234,
      "è½»æĿ¾": 5235,
      "ç¦ģåĮº": 5236,
      "ç§īæī¿": 5237,
      "éģĶ": 5238,
      "è¿ĩæķı": 5239,
      "å®¡æī¹": 5240,
      "éŃħ": 5241,
      "æ¶Īæ¯Ĵ": 5242,
      "å¼ĢåĲ¯": 5243,
      "åĲįåįķ": 5244,
      "è´¢äº§": 5245,
      "è¿Ŀåıį": 5246,
      "ç¥ĸåĽ½": 5247,
      "çľŁæŃ£çļĦ": 5248,
      "æ¾³å¤§åĪ©äºļ": 5249,
      "è¦ı": 5250,
      "æ²¦": 5251,
      "æķ°åŃ¦": 5252,
      "è¢«åĳĬ": 5253,
      "æ®¿": 5254,
      "çī¢è®°": 5255,
      "78": 5256,
      "äºŃ": 5257,
      "ä¸Ģåľº": 5258,
      "æ¶²ä½ĵ": 5259,
      "æĤ¨çļĦ": 5260,
      "å»ºç«ĭäºĨ": 5261,
      "èį£èİ·": 5262,
      "å½ĵä»£": 5263,
      "ED": 5264,
      "çļĦå¸Ĥåľº": 5265,
      "çļĦåĨħå®¹": 5266,
      "éĺ²èĮĥ": 5267,
      "éļıæĹ¶": 5268,
      "å®¡æł¸": 5269,
      "çº³ç¨İ": 5270,
      "åºŁæ°´": 5271,
      "éĩįéĩı": 5272,
      "èĭ¯": 5273,
      "ä¾Ľç»Ļ": 5274,
      "æĸ¯åĿ¦": 5275,
      "æĺ¯ä¸Ģå®¶": 5276,
      "äººæĸĩ": 5277,
      "å¼Ħ": 5278,
      "åħ¨èº«": 5279,
      "åı¯èĥ½æĺ¯": 5280,
      "åįĬåľº": 5281,
      "76": 5282,
      "çĽĴ": 5283,
      "éģ¥": 5284,
      "éĩĬæĶ¾": 5285,
      "åľ¨è¿ĻéĩĮ": 5286,
      "é¢ĩ": 5287,
      "æĽ´å¤§": 5288,
      "èĪŀè¹Ī": 5289,
      "éĬ": 5290,
      "æĺ¯ä»¥": 5291,
      "æĪĳæł¡": 5292,
      "æľªæĿ¥çļĦ": 5293,
      "æĢĴ": 5294,
      "æ°´åĪ©": 5295,
      "èº«ä½ĵåģ¥åº·": 5296,
      "æĸ°æĹ¶ä»£ä¸ŃåĽ½çī¹èī²ç¤¾ä¼ļä¸»ä¹īæĢĿæĥ³": 5297,
      "çļĦåĬĽéĩı": 5298,
      "èµģ": 5299,
      "æµģè¡Į": 5300,
      "ç»ĨèĬĤ": 5301,
      "èĲ½åľ°": 5302,
      "ä¾ĿéĿł": 5303,
      "åħ¨æĸ¹ä½į": 5304,
      "ç¯Ģ": 5305,
      "æī¿è¯º": 5306,
      "çļĦçłĶç©¶": 5307,
      "åıĺéĿ©": 5308,
      "ä¿¡ä»»": 5309,
      "å®¢è§Ĥ": 5310,
      "èĽĭçĻ½è´¨": 5311,
      "æĻºèĥ½åĮĸ": 5312,
      "ç§Łèµģ": 5313,
      "ç²®é£Ł": 5314,
      "åİī": 5315,
      "çľŁçĲĨ": 5316,
      "æĺ¾çĦ¶": 5317,
      "ä¼ļåĳĺ": 5318,
      "è¿Ļä½į": 5319,
      "åĪ°çļĦ": 5320,
      "å¦Ĩ": 5321,
      "æ¶Į": 5322,
      "ä¸Ģä¸ªæĸ°çļĦ": 5323,
      "éªĳ": 5324,
      "è¡Ĺéģĵ": 5325,
      "ç¸½": 5326,
      "ä¼ļçļĦ": 5327,
      "çļĦçī¹çĤ¹": 5328,
      "è®¼": 5329,
      "åħļæĶ¯éĥ¨": 5330,
      "å¯¼æ¼Ķ": 5331,
      "ä¼ĺæĥł": 5332,
      "çĴ°": 5333,
      "çļĦéĢīæĭ©": 5334,
      "åĨ¬åŃ£": 5335,
      "om": 5336,
      "é«ĺè¾¾": 5337,
      "æ·®": 5338,
      "è¾½å®ģ": 5339,
      "çļĦè¿ĩç¨ĭä¸Ń": 5340,
      "æķĪåºĶ": 5341,
      "æŀª": 5342,
      "ä¸¾æİª": 5343,
      "ç¼ĸåĪ¶": 5344,
      "è©²": 5345,
      "éħ±": 5346,
      "æĬĵä½ı": 5347,
      "éĽ¶åĶ®": 5348,
      "ä¸Ģä»½": 5349,
      "ç²¾åĵģ": 5350,
      "ä¸ľåįĹ": 5351,
      "é¼ł": 5352,
      "æĸ°åħ´": 5353,
      "å°Ĩåħ¶": 5354,
      "ä¸Ģçº¿": 5355,
      "ä¿±": 5356,
      "æĽ´æį¢": 5357,
      "åĲĦèĩª": 5358,
      "è§£æĶ¾": 5359,
      "è´§çī©": 5360,
      "çļĦå®īåħ¨": 5361,
      "éĢļé£İ": 5362,
      "å»¶éķ¿": 5363,
      "çļĦè´¨éĩı": 5364,
      "å±Ī": 5365,
      "æĪĲå¹´": 5366,
      "å®ŀçĶ¨": 5367,
      "éĩįå¤į": 5368,
      "è¡¥è´´": 5369,
      "èŃ°": 5370,
      "æİ§èĤ¡": 5371,
      "çº³åħ¥": 5372,
      "è¶ħå£°": 5373,
      "åį³å°Ĩ": 5374,
      "èĢĲç£¨": 5375,
      "éĢīçĶ¨": 5376,
      "æ¹ĺ": 5377,
      "çŃ¾è®¢": 5378,
      "al": 5379,
      "éģĹäº§": 5380,
      "åİĭç¼©": 5381,
      "è´¾": 5382,
      "çĶµåĻ¨": 5383,
      "èĳ±": 5384,
      "åĽŃæŀĹ": 5385,
      "æµªè´¹": 5386,
      "æĪĲäºº": 5387,
      "å¤ĸè§Ĥ": 5388,
      "æĶ¶è´¹": 5389,
      "è¯ĬçĸĹ": 5390,
      "æĲŃéħį": 5391,
      "ä¸¢": 5392,
      "çļĦä¸ľè¥¿": 5393,
      "ä»²": 5394,
      "åīĩ": 5395,
      "ç¼ĸè¾ĳ": 5396,
      "ãĢĤãĢį": 5397,
      "èĮħ": 5398,
      "æ¢¨": 5399,
      "å°ºå¯¸": 5400,
      "ä¸įå¿ĺ": 5401,
      "æĬ«": 5402,
      "ä¹Łä¸įä¼ļ": 5403,
      "å·²æľī": 5404,
      "å¥ĸåĬ±": 5405,
      "åħĦå¼Ł": 5406,
      "æķĻèĤ²çļĦ": 5407,
      "éĢĢä¼ĳ": 5408,
      "é¡¹çĽ®çļĦ": 5409,
      "è¿ĩåº¦": 5410,
      "çĶµæºĲ": 5411,
      "æ°ĳèĲ¥": 5412,
      "ä¸Ģä½ĵåĮĸ": 5413,
      "çļĦè§Ħå®ļ": 5414,
      "çŃĭ": 5415,
      "85": 5416,
      "æłª": 5417,
      "ä¼ļå¯¼èĩ´": 5418,
      "éĩĳé¢Ŀ": 5419,
      "æ¯ıæĹ¥": 5420,
      "èµ·äºĨ": 5421,
      "å§Ķæīĺ": 5422,
      "äºĭä¸ļåįķä½į": 5423,
      "èģª": 5424,
      "åĲįçļĦ": 5425,
      "è¿ĲåĬ¨åĳĺ": 5426,
      "600": 5427,
      "ç¥Ń": 5428,
      "æĻĤéĸĵ": 5429,
      "åĩºçĶŁäºİ": 5430,
      "42": 5431,
      "æľīåºı": 5432,
      "ä»ĸè¯´": 5433,
      "å¼ºå¤§çļĦ": 5434,
      "èĩ³äºİ": 5435,
      "äº§åĵģè´¨éĩı": 5436,
      "åıī": 5437,
      "æĦĽ": 5438,
      "æĦıå¤ĸ": 5439,
      "ç»ĵå©ļ": 5440,
      "æĭ³": 5441,
      "éĶĲ": 5442,
      "åıł": 5443,
      "æł½": 5444,
      "å°ıè¯´": 5445,
      "çĪ½": 5446,
      "æł¡éķ¿": 5447,
      "éĶĢéĩı": 5448,
      "éłħ": 5449,
      "ç¾İè§Ĥ": 5450,
      "æļĳ": 5451,
      "æī©æķ£": 5452,
      "çĶµè·¯": 5453,
      "å½ĵå¹´": 5454,
      "è¯»ä¹¦": 5455,
      "çµ±": 5456,
      "æĬĵå¥½": 5457,
      "èĤ¢": 5458,
      "æľĢéĩįè¦ģ": 5459,
      "è®©ä½ł": 5460,
      "å¸¦æĿ¥äºĨ": 5461,
      "ĠâĢľ": 5462,
      "å®ŀåľ¨": 5463,
      "å¨ľ": 5464,
      "ä¸įå¼Ģ": 5465,
      "ä¸įå¦Ĥ": 5466,
      "è¿Ļç±»": 5467,
      "è¯īè®¼": 5468,
      "éĤĢè¯·": 5469,
      "åŃĲå¥³": 5470,
      "å¨ģèĥģ": 5471,
      "ä»¥å¤ĸ": 5472,
      "æīĢå¾Ĺ": 5473,
      "é£İæĻ¯": 5474,
      "å·²æĪĲä¸º": 5475,
      "çĬ¹": 5476,
      "éļ¾åº¦": 5477,
      "æĹ¥åħĥ": 5478,
      "åŀ«": 5479,
      "é¢Ħæµĭ": 5480,
      "èĽĩ": 5481,
      "æķıæĦŁ": 5482,
      "è¯ŀ": 5483,
      "ä¾¯": 5484,
      "éĿ¢åīį": 5485,
      "æŁ¥çľĭ": 5486,
      "æĸľ": 5487,
      "çŃīé¢ĨåŁŁ": 5488,
      "äºĮçº§": 5489,
      "å¢ŀåĢ¼": 5490,
      "çĨĶ": 5491,
      "æķ°åŃĹåĮĸ": 5492,
      "çļĦç¤¾ä¼ļ": 5493,
      "èĨı": 5494,
      "çĶŁçĲĨ": 5495,
      "æĸ°é²ľ": 5496,
      "ç¨ĭåº¦ä¸Ĭ": 5497,
      "ä¸»åĬŀ": 5498,
      "æŃ£ç¡®çļĦ": 5499,
      "æĽĿ": 5500,
      "èª¿": 5501,
      "at": 5502,
      "äºı": 5503,
      "95": 5504,
      "åĪ°è¾¾": 5505,
      "ä¹ĭä¸ĭ": 5506,
      "å¾Īé«ĺ": 5507,
      "å®ŀä¹ł": 5508,
      "è¡£æľį": 5509,
      "äººåĴĮ": 5510,
      "åĵŃ": 5511,
      "åĳ³éģĵ": 5512,
      "çĽĳçĿ£ç®¡çĲĨ": 5513,
      "èĭıèģĶ": 5514,
      "ä¸įéľĢè¦ģ": 5515,
      "éĥ¨çļĦ": 5516,
      "èĻ¾": 5517,
      "å±ĢéĿ¢": 5518,
      "çĪ±åĽ½": 5519,
      "ãĢĤãĢĤ": 5520,
      "ä¼ª": 5521,
      "åĲĮä¸Ģ": 5522,
      "é«ĺåİĭ": 5523,
      "æĽ´å¤§çļĦ": 5524,
      "çºªå½ķ": 5525,
      "ç¨İåĬ¡": 5526,
      "æ°®": 5527,
      "æ¨Ĥ": 5528,
      "æ¶Īå¤±": 5529,
      "çĽĹ": 5530,
      "æĶ¶èİ·": 5531,
      "çĤİçĹĩ": 5532,
      "æĭįæĳĦ": 5533,
      "è¦ĸ": 5534,
      "æĹłçĸĳ": 5535,
      "æĵħ": 5536,
      "ç³ĸå°¿": 5537,
      "è¿Ľç¨ĭ": 5538,
      "å¸¸è§Ħ": 5539,
      "æī¹è¯Ħ": 5540,
      "æĬ¼": 5541,
      "å»Ĭ": 5542,
      "æĺ¯æĪĳ": 5543,
      "å¤ļåĲĥ": 5544,
      "æĹ¥åīį": 5545,
      "ä¿Ŀåħ»": 5546,
      "éľī": 5547,
      "åĴ³": 5548,
      "å¤§æ°Ķ": 5549,
      "çĶ¨äºº": 5550,
      "æ¼ł": 5551,
      "èģĮèĥ½": 5552,
      "68": 5553,
      "åħ½": 5554,
      "è¿ĩçļĦ": 5555,
      "éĢļæĬ¥": 5556,
      "å£ĵ": 5557,
      "æĩĪ": 5558,
      "çĭĢ": 5559,
      "é¢ĦæľŁ": 5560,
      "éĨī": 5561,
      "ä¹Ķ": 5562,
      "åĽłèĢĮ": 5563,
      "è§Ħæł¼": 5564,
      "å¥ł": 5565,
      "ç«Ń": 5566,
      "éĽ¢": 5567,
      "çĹħåĽł": 5568,
      "éļĶç¦»": 5569,
      "æľįåĬ¡çļĦ": 5570,
      ":ãĢĮ": 5571,
      "150": 5572,
      "éĹ¹": 5573,
      "å¼Ģå¹ķ": 5574,
      "åıĤèµĽ": 5575,
      "æĿĥå¨ģ": 5576,
      "ä¼łæĦŁåĻ¨": 5577,
      "ä¸ĺ": 5578,
      "å¸½": 5579,
      "çŃīå¾ħ": 5580,
      "æĺİæĺŁ": 5581,
      "44": 5582,
      "æīŃ": 5583,
      "çĶŁæ®ĸ": 5584,
      "æĢ§å¥½": 5585,
      "ç´Ħ": 5586,
      "éĴł": 5587,
      "è¾ĥé«ĺçļĦ": 5588,
      "é¸¿": 5589,
      "ä¸Ĭæľī": 5590,
      "éĢīæīĭ": 5591,
      "éŁ§": 5592,
      "éļ¾é¢ĺ": 5593,
      "éħįå¤ĩ": 5594,
      "åıĳåĩº": 5595,
      "å¥³åŃ©": 5596,
      "äºĶè¡Įç¼º": 5597,
      "åį¸": 5598,
      "æ³ķå®ļ": 5599,
      "å¹½": 5600,
      "æĺ¯ä¸įæĺ¯": 5601,
      "ä¹łè¿ĳå¹³æĸ°æĹ¶ä»£ä¸ŃåĽ½çī¹èī²ç¤¾ä¼ļä¸»ä¹īæĢĿæĥ³": 5602,
      "éĢĶå¾Ħ": 5603,
      "é«ĺæĸ°æĬĢæľ¯": 5604,
      "æ¬ł": 5605,
      "æĹ¥èĩ³": 5606,
      "åħ³èĬĤ": 5607,
      "å¤ĸåĽ½": 5608,
      "æĦıéĹ´": 5609,
      "æīĵåĩ»": 5610,
      "äºĶè¡ĮåĪĨæŀĲ": 5611,
      "æ¾³éĹ¨": 5612,
      "åħļå§Ķä¹¦è®°": 5613,
      "ä¸ºä¸Ńå¿ĥ": 5614,
      "å¤ªå¤ļ": 5615,
      "IS": 5616,
      "æµģéĢļ": 5617,
      "éĽ£": 5618,
      "ä¿ĿåŃĺ": 5619,
      "åĲįä¸º": 5620,
      "èĩªèº«çļĦ": 5621,
      "æīĵåį°": 5622,
      "èĳĽ": 5623,
      "æĤ¨åħ«åŃĹ": 5624,
      "åį§": 5625,
      "åĲĪçĲĨçļĦ": 5626,
      "å°Ŀè¯ķ": 5627,
      "å¤ĸäº¤": 5628,
      "éĤ£æł·": 5629,
      "å¤«å¦»": 5630,
      "å¯¹å¾ħ": 5631,
      "åĲĦçķĮ": 5632,
      "æĺ¾å¾Ĺ": 5633,
      "èĤ¡æĿĥ": 5634,
      "æĽ¿ä»£": 5635,
      "å¤§å¸Ī": 5636,
      "èµĦåĬ©": 5637,
      "å¢ŀåĬłäºĨ": 5638,
      "å¯¨": 5639,
      "åıįèĢĮ": 5640,
      "åĲĮæĹ¶ä¹Ł": 5641,
      "66": 5642,
      "çºĮ": 5643,
      "åĨįçĶŁ": 5644,
      "æķ°æį®æĺ¾ç¤º": 5645,
      "é£ŀæľº": 5646,
      "æī®": 5647,
      "çĥĺ": 5648,
      "å¾Īå°ĳ": 5649,
      "åĽŀå®¶": 5650,
      "ç¢º": 5651,
      "å³¡": 5652,
      "éģµå¾ª": 5653,
      "æ±Łèĭıçľģ": 5654,
      "çļĦåıĺåĮĸ": 5655,
      "åħĪè¿ĽçļĦ": 5656,
      "çĶĺèĤĥ": 5657,
      "æıĲåĪ°è¿ĩ": 5658,
      "ä¼łæŁĵ": 5659,
      "åĪĳäºĭ": 5660,
      "çļĦåħ³ç³»": 5661,
      "çĶ¨åĵģ": 5662,
      "å·¥ä½ľèĢħ": 5663,
      "ç¤¾äº¤": 5664,
      "åİŁæĿĲæĸĻ": 5665,
      "å¸ĤæĶ¿åºľ": 5666,
      "äººæ°ĳæ³ķéĻ¢": 5667,
      "é»ĳèī²ç´ł": 5668,
      "å¥Ī": 5669,
      "è¾¦": 5670,
      "èĬ¬": 5671,
      "æį®æĤī": 5672,
      "çĻ½éħĴ": 5673,
      "ä¾¿æĺ¯": 5674,
      "èĶ¡": 5675,
      "77": 5676,
      "æĬĢå·§": 5677,
      "æĮĩç¤º": 5678,
      "èĤĮèĤī": 5679,
      "èķ´": 5680,
      "çļĦçĽ®æłĩ": 5681,
      "ä¿®æĶ¹": 5682,
      "èĬ½": 5683,
      "å®ĹæķĻ": 5684,
      "å·©åĽº": 5685,
      "BA": 5686,
      "è¥¿åįĹ": 5687,
      "æĻ®åıĬ": 5688,
      "çµĦ": 5689,
      "ch": 5690,
      "æĭ¨": 5691,
      "è£¡": 5692,
      "æ²«": 5693,
      "è¥¿åĮĹ": 5694,
      "åĦĴ": 5695,
      "ç¿Ķ": 5696,
      "åľ¨åħ¨åĽ½": 5697,
      "èµĲ": 5698,
      "åħļåı²": 5699,
      "çĶŁäº§çº¿": 5700,
      "åĿļæĮģä»¥": 5701,
      "å¾ģç¨ĭ": 5702,
      "çĺ¦": 5703,
      "æķ´æ²»": 5704,
      "åĮ»çĸĹåĻ¨æ¢°": 5705,
      "äººåĬĽèµĦæºĲ": 5706,
      "çļĦäººçĶŁ": 5707,
      "2006": 5708,
      "ä»İä¸ļ": 5709,
      "ä¸ĵä¸ļæĬĢæľ¯": 5710,
      "éĢ»": 5711,
      "è¦º": 5712,
      "æ°´ä¸Ń": 5713,
      "é¦Ī": 5714,
      "æĴ¤": 5715,
      "å¯¹æİ¥": 5716,
      "æ°´æ³¥": 5717,
      "åĭĺ": 5718,
      "ä»·åĢ¼è§Ĥ": 5719,
      "æĽ¾ç»ıæıĲåĪ°è¿ĩ": 5720,
      "ä¸¸": 5721,
      "æ¼Ķåĩº": 5722,
      "èĪŁ": 5723,
      "é£ĺ": 5724,
      "å¸¸åĬ¡": 5725,
      "æĢĿèĢĥè¿Ļä¸ªéĹ®é¢ĺ": 5726,
      "å¤ļæķ°": 5727,
      "å®ŀä½ĵ": 5728,
      "è§£çŃĶ": 5729,
      "åįĵè¶Ĭ": 5730,
      "åĨħèĴĻåı¤": 5731,
      "æ£ĭ": 5732,
      "æĶ¶è´Ń": 5733,
      "å®ĮæĪĲäºĨ": 5734,
      "ç³Ĭ": 5735,
      "éĹ´çļĦ": 5736,
      "ä½¿åħ¶": 5737,
      "å±Ģéķ¿": 5738,
      "è¦ģåľ¨": 5739,
      "æĪ¿åŃĲ": 5740,
      "æī¿åĮħ": 5741,
      "äºĴçĽ¸": 5742,
      "åĤĻ": 5743,
      "et": 5744,
      "æĬĬæĪĳä»¬": 5745,
      "åįıåķĨ": 5746,
      "åħħè¶³": 5747,
      "å¤§äºİ": 5748,
      "åľ°è´¨": 5749,
      "åĪĨè§£": 5750,
      "æ¨¡åŀĭ": 5751,
      "çķĻä¸ĭ": 5752,
      "å¸ķ": 5753,
      "å»ºéĢł": 5754,
      "æĸĩåĮĸçļĦ": 5755,
      "åŃ£èĬĤ": 5756,
      "ç¼ºçĤ¹": 5757,
      "ä½Ļäºº": 5758,
      "å¦»åŃĲ": 5759,
      "çļĦåıĳçĶŁ": 5760,
      "è¡Ķ": 5761,
      "ä¹Łå°Ĩ": 5762,
      "åĲĮæľŁ": 5763,
      "çİ°åľ¨çļĦ": 5764,
      "çİĽ": 5765,
      "å¹³ç¨³": 5766,
      "çľĭçĿĢ": 5767,
      "éĺ²çģ«": 5768,
      "æŁĲç§į": 5769,
      "èĥİåĦ¿": 5770,
      "âĸ": 5771,
      "çļĦæľºä¼ļ": 5772,
      "åı¹": 5773,
      "åŃ¦æł¡çļĦ": 5774,
      "å¾®çĶŁçī©": 5775,
      "åĴĮæĬĢæľ¯": 5776,
      "èĭıå·ŀ": 5777,
      "æī¶è´«": 5778,
      "åľĺ": 5779,
      "åľ°éĵģ": 5780,
      "å¿ĥä¸Ń": 5781,
      "ç¬¬ä¸ĥ": 5782,
      "åĪ©äºļ": 5783,
      "æĸ°çĶŁ": 5784,
      "å±±ä¸ľçľģ": 5785,
      "æķ°æİ§": 5786,
      "ç¨İæĶ¶": 5787,
      "es": 5788,
      "çļĦæķħäºĭ": 5789,
      "æıĲäº¤": 5790,
      "éª¤": 5791,
      "æĬ¥èĢĥ": 5792,
      "çľŁç©º": 5793,
      "èĮĤ": 5794,
      "æĢ»éĥ¨": 5795,
      "ä½¿çĶ¨å¯¿åĳ½": 5796,
      "ç§ĳåŃ¦æĬĢæľ¯": 5797,
      "éĢıéľ²": 5798,
      "æ¡¥æ¢ģ": 5799,
      "47": 5800,
      "æ£Ĵ": 5801,
      "çĶµè§Ĩåī§": 5802,
      "ä¼ļéķ¿": 5803,
      "æĥ©": 5804,
      "çľ¾": 5805,
      "åĲĦåĽ½": 5806,
      "ä¸įåĪ©": 5807,
      "å¤§éĻĨ": 5808,
      "æĪĳæĥ³": 5809,
      "ç»ĻäºĨ": 5810,
      "æ´»åĬ¨çļĦ": 5811,
      "ä¼Łå¤§å¤įåħ´": 5812,
      "Ġå¹´": 5813,
      "åľ¨æł¡": 5814,
      "å¿ĥæĥħ": 5815,
      "èĪ°": 5816,
      "éĺŁåĳĺ": 5817,
      "å¿½è§Ĩ": 5818,
      "é¥¼": 5819,
      "æĪĲä¸ºäºĨ": 5820,
      "æ°´åĪĨ": 5821,
      "æľ¬è´¨": 5822,
      "æŁı": 5823,
      "åıĺå½¢": 5824,
      "èµ°è¿Ľ": 5825,
      "56": 5826,
      "å¤ļé¡¹": 5827,
      "ç³ķ": 5828,
      "åĢºåĬ¡": 5829,
      "æ§½": 5830,
      "äº§èĥ½": 5831,
      "ä¼łéĢĴ": 5832,
      "åĨĽéĺŁ": 5833,
      "çĻ¼å±ķ": 5834,
      "çļĦè¿ĩç¨ĭ": 5835,
      "æīĭç»Ń": 5836,
      "å½¢çĬ¶": 5837,
      "åº§è°Ī": 5838,
      "åĪļåĪļ": 5839,
      "çħ¤çĤŃ": 5840,
      "3000": 5841,
      "Ġ1": 5842,
      "åĨħå¿ĥ": 5843,
      "ç¿¼": 5844,
      "éĢłæĪĲçļĦ": 5845,
      "çŃĶæ¡Ī": 5846,
      "æĸ¹çļĦ": 5847,
      "æĶ¶åĪ°": 5848,
      "ä¸Ģå¸¦ä¸Ģè·¯": 5849,
      "æĪĳåľ¨": 5850,
      "å½ĵäºĭ": 5851,
      "è¨±": 5852,
      "çĭ¬çī¹çļĦ": 5853,
      "éĶĤ": 5854,
      "æŃĮæĽ²": 5855,
      "ing": 5856,
      "åĨħåĪĨæ³Į": 5857,
      "èĬĤçľģ": 5858,
      "æ¬§åĨł": 5859,
      "è·µè¡Į": 5860,
      "43": 5861,
      "æıĲåıĸ": 5862,
      "æīįä¼ļ": 5863,
      "åŁİåĮº": 5864,
      "è§Ĥçľĭ": 5865,
      "è¾ĵåĩº": 5866,
      "åľĸ": 5867,
      "éģ©": 5868,
      "è¿ĽèĢĮ": 5869,
      "å¿ĥæĢģ": 5870,
      "è´Łæĭħ": 5871,
      "å¦¥": 5872,
      "å¸¦åĪ°äºĨ": 5873,
      "åħļçļĦåįģä¹Ŀ": 5874,
      "åħįçĸ«åĬĽ": 5875,
      "åıĥ": 5876,
      "ä¸įåľ¨": 5877,
      "çĶµç«Ļ": 5878,
      "çľī": 5879,
      "çİ°çĬ¶": 5880,
      "æķĻæĿĲ": 5881,
      "è¯¸å¤ļ": 5882,
      "å¥½åĥı": 5883,
      "çģ£": 5884,
      "ç²¾å¿ĥ": 5885,
      "æĬ¥èŃ¦": 5886,
      "éĺ²èħĲ": 5887,
      "ç¤¾ä¼ļçļĦ": 5888,
      "è¯ģæį®": 5889,
      "LED": 5890,
      "çĲĨçĶ±": 5891,
      "åįģäºĶ": 5892,
      "ä¸Ĭæµ·å¸Ĥ": 5893,
      "ä¸Ĭå¹´": 5894,
      "å¤ĸçķĮ": 5895,
      "åı¯ä»¥éĢļè¿ĩ": 5896,
      "éĺ²æ°´": 5897,
      "å±ĤéĿ¢": 5898,
      "æĭĽèģĺ": 5899,
      "åĲĮäºĭ": 5900,
      "å¥½å¤Ħ": 5901,
      "å²³": 5902,
      "è¨ĺ": 5903,
      "éĥĳå·ŀ": 5904,
      "æ²³åįĹçľģ": 5905,
      "æĹ¶å°ļ": 5906,
      "åĭŁ": 5907,
      "ä¹ĭæīĢä»¥": 5908,
      "ç¢§": 5909,
      "åįıä½ľ": 5910,
      "åįłæ¯Ķ": 5911,
      "èĲĿåįľ": 5912,
      "çļĦç¾İ": 5913,
      "çŃĴ": 5914,
      "å¤ļå¹´æĿ¥": 5915,
      "å¿ĥèĦı": 5916,
      "ä»İä¸¥": 5917,
      "è®²è¿°": 5918,
      "é²ľæĺİ": 5919,
      "ç³ĸå°¿çĹħ": 5920,
      "æĢ¨": 5921,
      "ä¸įç¦ģ": 5922,
      "åľ°çĤ¹": 5923,
      "ç§įåŃĲ": 5924,
      "çķı": 5925,
      "å®Įç¾İ": 5926,
      "åĶ®åĲİæľįåĬ¡": 5927,
      "li": 5928,
      "çļĦåŃ¦ä¹ł": 5929,
      "ç¨»": 5930,
      "çĶµç¼Ĩ": 5931,
      "äº¤æį¢": 5932,
      "åĵįåºĶ": 5933,
      "çŀ¬": 5934,
      "åĨħèĨľ": 5935,
      "èģĮåĬ¡": 5936,
      "æĲħ": 5937,
      "åħĴ": 5938,
      "ç®¡çĲĨä½ĵç³»": 5939,
      "æĵļ": 5940,
      "è½¨éģĵ": 5941,
      "çī©èģĶç½ĳ": 5942,
      "éħµ": 5943,
      "èĦĨ": 5944,
      "ä¾Ŀèµĸ": 5945,
      "åħ¨å¹´": 5946,
      "åĬłæĭ¿": 5947,
      "å°ıåĮº": 5948,
      "åŃĺåĤ¨": 5949,
      "2007": 5950,
      "å¾ħéģĩ": 5951,
      "ä¸ĢçĶŁ": 5952,
      "åħ¬æ°ĳ": 5953,
      "æĹħè¡Į": 5954,
      "éŁ¦": 5955,
      "ä¸Ĭå¸Ĥåħ¬åı¸": 5956,
      "ä¸»æ¼Ķ": 5957,
      "å¹³çŃī": 5958,
      "æį®äºĨè§£": 5959,
      "è¶ħè¶Ĭ": 5960,
      "ä»Ķç»Ĩ": 5961,
      "åĩ¸": 5962,
      "æľºç»Ħ": 5963,
      "æ°´å¹³çļĦ": 5964,
      "æĿ¡ä»¶ä¸ĭ": 5965,
      "ao": 5966,
      "è¦ģæĬĬ": 5967,
      "è¥¿äºļ": 5968,
      "è¾ĵåħ¥": 5969,
      "å®¡è®¡": 5970,
      "æ¶µçĽĸ": 5971,
      "çĹĴ": 5972,
      "åħ¥éĢī": 5973,
      "ä¸Ńå°ıä¼ģä¸ļ": 5974,
      "ä¸Ńåħ¨ä¼ļ": 5975,
      "åĴĮç®¡çĲĨ": 5976,
      "ä¼ļåĩºçİ°": 5977,
      "èĢĮæĪĲ": 5978,
      "ç´ļ": 5979,
      "çĥ¤": 5980,
      "æĢ»é¢Ŀ": 5981,
      "è¯¾é¢ĺ": 5982,
      "æııè¿°": 5983,
      "éŃħåĬĽ": 5984,
      "è½ī": 5985,
      "ä¸įä»ħä»ħ": 5986,
      "æ¡£æ¡Ī": 5987,
      "æľįåĭĻ": 5988,
      "éĢīä¸¾": 5989,
      "åĤħ": 5990,
      "æľĢä¸º": 5991,
      "è©±": 5992,
      "ä¸įä¹ħ": 5993,
      "å§ĳ": 5994,
      "æ¨Ļ": 5995,
      "ç»ıæµİç¤¾ä¼ļåıĳå±ķ": 5996,
      "èĩĤ": 5997,
      "åīµ": 5998,
      "æ±°": 5999,
      "åĲĮæŃ¥": 6000,
      "è¯Ħè®º": 6001,
      "èŃ·": 6002,
      "åĨ²çªģ": 6003,
      "5000": 6004,
      "ä¸Ģä½ĵçļĦ": 6005,
      "çĶŁåĬ¨": 6006,
      "ä¸»åľº": 6007,
      "æ¶Ľ": 6008,
      "åįģä¸Ģ": 6009,
      "èŃī": 6010,
      "æįŁåĿı": 6011,
      "é½Ĳåħ¨": 6012,
      "è¯±åıĳ": 6013,
      "æĸ°èĥ½æºĲæ±½è½¦": 6014,
      "æľŁéĻĲ": 6015,
      "èĳ¬": 6016,
      "åıĳçĶŁäºĨ": 6017,
      "ä¹¾": 6018,
      "æłĩåĩĨåĮĸ": 6019,
      "éĺĲ": 6020,
      "è¿ĺæ²¡æľī": 6021,
      "æĶ¾æĿ¾": 6022,
      "çľĭèµ·æĿ¥": 6023,
      "æĢ»å±Ģ": 6024,
      "ç»µ": 6025,
      "ä¸ŃåĴĮ": 6026,
      "æŀ¢": 6027,
      "æ±º": 6028,
      "ä¿ĿçķĻ": 6029,
      "çģ«çģ¾": 6030,
      "æķĳæı´": 6031,
      "çĩĥçĥ§": 6032,
      "æĮĸæİĺ": 6033,
      "ä¸²": 6034,
      "äººå¿ĥ": 6035,
      "æľĢéĩįè¦ģçļĦ": 6036,
      "ä¸¤åĽ½": 6037,
      "èŁ¹": 6038,
      "çĨ¬": 6039,
      "çĶŁæ¶¯": 6040,
      "ç©´": 6041,
      "å¼ºåĪ¶": 6042,
      "æĦŁåıĹåĪ°": 6043,
      "èħ»": 6044,
      "åĦª": 6045,
      "æī¿åıĹ": 6046,
      "å®ŀåľ°": 6047,
      "2005": 6048,
      "åİĺç±³": 6049,
      "ä¸įåıĹ": 6050,
      "æĥ§": 6051,
      "æľĪçļĦ": 6052,
      "åİĨåı²ä¸Ĭ": 6053,
      "å®¹éĩı": 6054,
      "æīĵçł´": 6055,
      "æľīæķĪåľ°": 6056,
      "åİŁæľ¬": 6057,
      "åĽĽå¤§": 6058,
      "è½¬æį¢": 6059,
      "ç¢Ĺ": 6060,
      "æĢ¥æĢ§": 6061,
      "å¿ħè¦ģçļĦ": 6062,
      "æĺ¯æĪĳä»¬": 6063,
      "æ¸Ķ": 6064,
      "çłĶç©¶ä¸Ńå¿ĥ": 6065,
      "åĪĿæŃ¥": 6066,
      "è¿Ļä¸ĢçĤ¹": 6067,
      "åľ¨å¤§": 6068,
      "ä¸įä¸Ģæł·": 6069,
      "éĢļçĶ¨": 6070,
      "æ¼ĶåĶ±": 6071,
      "å·´è¥¿": 6072,
      "é£ŀè¡Į": 6073,
      "ç¤¾ä¼ļä¸»ä¹īçİ°ä»£åĮĸ": 6074,
      ");": 6075,
      "çļĦåºĶçĶ¨": 6076,
      "çļĦçĽ®çļĦ": 6077,
      "å¹´åīį": 6078,
      "æ»ŀ": 6079,
      "çĮ´": 6080,
      "ç¡¬åº¦": 6081,
      "æ³»": 6082,
      "ä»¬çļĦ": 6083,
      "çĻĤ": 6084,
      "è¢«ç§°ä¸º": 6085,
      "å¡ĺ": 6086,
      "éĤª": 6087,
      "è²»": 6088,
      "æ¶¦æ»ĳ": 6089,
      "å¤ªéĺ³èĥ½": 6090,
      "ç»´åº¦åİ»": 6091,
      "è®¾æľī": 6092,
      "éħ¿": 6093,
      "ä¸įæĸŃæıĲé«ĺ": 6094,
      "çļĦæĥħ": 6095,
      "è¡·": 6096,
      "å®¶æĹı": 6097,
      "çľĭè§ģ": 6098,
      "èħĬ": 6099,
      "ç®ĢåįķçļĦ": 6100,
      "æĳĦå½±": 6101,
      "ä¾ĽåºĶéĵ¾": 6102,
      "51": 6103,
      "52": 6104,
      "éĢ¾": 6105,
      "åİŁæĿ¥": 6106,
      "åĬ©æĶ»": 6107,
      "å¤ıå¤©": 6108,
      "è¾ħå¯¼": 6109,
      "éĢ²è¡Į": 6110,
      "120": 6111,
      "æĬļ": 6112,
      "äºĮæ¬¡": 6113,
      "çªĿ": 6114,
      "ç§©": 6115,
      "å¯¹åħ¶": 6116,
      "åĩºè¡Į": 6117,
      "åĪ¶åĨ·": 6118,
      "çī©èµĦ": 6119,
      "äºĮæ°§åĮĸ": 6120,
      "éĨĽ": 6121,
      "å¹¼åĦ¿åĽŃ": 6122,
      "ä¸ºæŃ¤": 6123,
      "ä¿¡ä»°": 6124,
      "è¯Ħå®¡": 6125,
      "è®¿éĹ®": 6126,
      "è¿Ļåı¥è¯ĿæĬĬæĪĳä»¬": 6127,
      "çļĦè¡Įä¸º": 6128,
      "ä¸İæŃ¤": 6129,
      "æ·±æĢĿ": 6130,
      "æĶ¶èĹı": 6131,
      "ç´«å¤ĸ": 6132,
      "æľīå¤ļ": 6133,
      "å·¥ä¼ļ": 6134,
      "åĩıèĤ¥": 6135,
      "æ¯ĶèµĽä¸Ń": 6136,
      "å¤ıåŃ£": 6137,
      "åĲīæŀĹ": 6138,
      "åĲİæľŁ": 6139,
      "ä¼ĺå¼Ĥ": 6140,
      "ç¨³å®ļæĢ§": 6141,
      "æ¸ĹéĢı": 6142,
      "çļĦç¬¬ä¸Ģ": 6143
    },
    "merges": [
      [
        "ä",
        "¸"
      ],
      [
        "ã",
        "Ģ"
      ],
      [
        "ç",
        "ļ"
      ],
      [
        "çļ",
        "Ħ"
      ],
      [
        "ä",
        "º"
      ],
      [
        "ãĢ",
        "Ĥ"
      ],
      [
        "æ",
        "ľ"
      ],
      [
        "å",
        "ı"
      ],
      [
        "å",
        "ħ"
      ],
      [
        "ä",
        "»"
      ],
      [
        "ãĢ",
        "ģ"
      ],
      [
        "å",
        "¤"
      ],
      [
        "å",
        "®"
      ],
      [
        "å",
        "Ī"
      ],
      [
        "ä",
        "½"
      ],
      [
        "è",
        "¿"
      ],
      [
        "ç",
        "Ķ"
      ],
      [
        "å",
        "ľ"
      ],
      [
        "å",
        "Ĳ"
      ],
      [
        "å",
        "Ĭ"
      ],
      [
        "æ",
        "ĺ"
      ],
      [
        "ç",
        "»"
      ],
      [
        "å",
        "Ľ"
      ],
      [
        "æ",
        "ĸ"
      ],
      [
        "æ",
        "Ī"
      ],
      [
        "ä",
        "¹"
      ],
      [
        "ä",
        "¼"
      ],
      [
        "ä¸",
        "Ģ"
      ],
      [
        "å",
        "¹"
      ],
      [
        "å",
        "°"
      ],
      [
        "æĺ",
        "¯"
      ],
      [
        "å",
        "Ń"
      ],
      [
        "è",
        "®"
      ],
      [
        "æ",
        "Ĺ"
      ],
      [
        "â",
        "Ģ"
      ],
      [
        "å",
        "į"
      ],
      [
        "è",
        "¯"
      ],
      [
        "æľ",
        "ī"
      ],
      [
        "å",
        "·"
      ],
      [
        "åľ",
        "¨"
      ],
      [
        "é",
        "ĩ"
      ],
      [
        "æ",
        "Ŀ"
      ],
      [
        "äº",
        "º"
      ],
      [
        "å",
        "Į"
      ],
      [
        "ä¸",
        "į"
      ],
      [
        "å",
        "¸"
      ],
      [
        "å",
        "º"
      ],
      [
        "ä¸",
        "Ń"
      ],
      [
        "å",
        "¼"
      ],
      [
        "æ",
        "ī"
      ],
      [
        "é",
        "Ģ"
      ],
      [
        "å",
        "Ĵ"
      ],
      [
        "è",
        "¡"
      ],
      [
        "å",
        "¾"
      ],
      [
        "å",
        "Ĩ"
      ],
      [
        "è",
        "Ģ"
      ],
      [
        "å",
        "¯"
      ],
      [
        "åĴ",
        "Į"
      ],
      [
        "äº",
        "Ĩ"
      ],
      [
        "å",
        "ĩ"
      ],
      [
        "æ",
        "ķ"
      ],
      [
        "å",
        "±"
      ],
      [
        "ĥ",
        "½"
      ],
      [
        "æ",
        "Ģ"
      ],
      [
        "å¤",
        "§"
      ],
      [
        "ç",
        "Ľ"
      ],
      [
        "æ",
        "Ĭ"
      ],
      [
        "è",
        "´"
      ],
      [
        "ç",
        "§"
      ],
      [
        "ä¸",
        "º"
      ],
      [
        "æ",
        "°"
      ],
      [
        "åĽ",
        "½"
      ],
      [
        "æ",
        "ł"
      ],
      [
        "è",
        "§"
      ],
      [
        "çĶ",
        "Ł"
      ],
      [
        "è",
        "µ"
      ],
      [
        "ä¸",
        "ļ"
      ],
      [
        "ç",
        "İ"
      ],
      [
        "ç",
        "ī"
      ],
      [
        "è",
        "¦"
      ],
      [
        "å",
        "¥"
      ],
      [
        "ä»",
        "¥"
      ],
      [
        "æ",
        "Ķ"
      ],
      [
        "é",
        "Ļ"
      ],
      [
        "å",
        "¿"
      ],
      [
        "è¦",
        "ģ"
      ],
      [
        "åŃ",
        "¦"
      ],
      [
        "é",
        "Ŀ"
      ],
      [
        "åı",
        "ĳ"
      ],
      [
        "å¹",
        "´"
      ],
      [
        "è",
        "ĩ"
      ],
      [
        "ä¼",
        "ļ"
      ],
      [
        "æ",
        "Ń"
      ],
      [
        "å",
        "İ"
      ],
      [
        "çĶ",
        "¨"
      ],
      [
        "ç",
        "Ń"
      ],
      [
        "ç",
        "Ĳ"
      ],
      [
        "æ",
        "³"
      ],
      [
        "å",
        "½"
      ],
      [
        "ä",
        "¿"
      ],
      [
        "è",
        "ĥ½"
      ],
      [
        "æ",
        "²"
      ],
      [
        "ä¸",
        "Ĭ"
      ],
      [
        "é",
        "Ĺ"
      ],
      [
        "ä½",
        "ľ"
      ],
      [
        "å·",
        "¥"
      ],
      [
        "ç",
        "º"
      ],
      [
        "å",
        "ĳ"
      ],
      [
        "æ",
        "İ"
      ],
      [
        "æ",
        "µ"
      ],
      [
        "æ",
        "ŀ"
      ],
      [
        "æĹ",
        "¶"
      ],
      [
        "ä¸",
        "ª"
      ],
      [
        "âĢ",
        "ľ"
      ],
      [
        "âĢ",
        "Ŀ"
      ],
      [
        "æĪ",
        "Ĳ"
      ],
      [
        "å",
        "ĵ"
      ],
      [
        "è¿",
        "Ļ"
      ],
      [
        "è¡",
        "Į"
      ],
      [
        "åı",
        "¯"
      ],
      [
        "é",
        "¢"
      ],
      [
        "æĪ",
        "ĳ"
      ],
      [
        "åĪ",
        "°"
      ],
      [
        "æ",
        "¯"
      ],
      [
        "å¯",
        "¹"
      ],
      [
        "åĩ",
        "º"
      ],
      [
        "å",
        "Ł"
      ],
      [
        "æ",
        "Į"
      ],
      [
        "è",
        "¾"
      ],
      [
        "é",
        "«"
      ],
      [
        "æ",
        "ĥ"
      ],
      [
        "é",
        "ĺ"
      ],
      [
        "å®",
        "¶"
      ],
      [
        "äº",
        "İ"
      ],
      [
        "ç",
        "ľ"
      ],
      [
        "çĲ",
        "Ĩ"
      ],
      [
        "è",
        "Ĥ"
      ],
      [
        "é«",
        "ĺ"
      ],
      [
        "å",
        "ī"
      ],
      [
        "äº",
        "§"
      ],
      [
        "æĿ",
        "¥"
      ],
      [
        "åĮ",
        "ĸ"
      ],
      [
        "å¤",
        "ļ"
      ],
      [
        "åľ",
        "°"
      ],
      [
        "æ",
        "±"
      ],
      [
        "çŃ",
        "ī"
      ],
      [
        "æ",
        "Ħ"
      ],
      [
        "æ",
        "ĭ"
      ],
      [
        "æĸ",
        "¹"
      ],
      [
        "åĬ",
        "Ľ"
      ],
      [
        "åĪ",
        "Ĩ"
      ],
      [
        "åħ",
        "¨"
      ],
      [
        "è",
        "½"
      ],
      [
        "é",
        "ģ"
      ],
      [
        "èĩ",
        "ª"
      ],
      [
        "è¿",
        "Ľ"
      ],
      [
        "æĸ",
        "°"
      ],
      [
        "æĢ",
        "§"
      ],
      [
        "ä½",
        "ĵ"
      ],
      [
        "å",
        "»"
      ],
      [
        "ä",
        "¾"
      ],
      [
        "ç",
        "®"
      ],
      [
        "åĬ",
        "¨"
      ],
      [
        "ç",
        "«"
      ],
      [
        "æ",
        "´"
      ],
      [
        "ç»",
        "ı"
      ],
      [
        "å®",
        "ŀ"
      ],
      [
        "åħ",
        "¬"
      ],
      [
        "ä¹",
        "Ł"
      ],
      [
        "æ",
        "¸"
      ],
      [
        "ä»",
        "¬"
      ],
      [
        "è¿",
        "ĩ"
      ],
      [
        "çİ",
        "°"
      ],
      [
        "é",
        "ĥ"
      ],
      [
        "å",
        "¦"
      ],
      [
        "å°",
        "±"
      ],
      [
        "ç",
        "¨"
      ],
      [
        "åĲ",
        "İ"
      ],
      [
        "åĲ",
        "Ī"
      ],
      [
        "é",
        "ķ"
      ],
      [
        "å±",
        "ķ"
      ],
      [
        "ä¸",
        "»"
      ],
      [
        "å",
        "ģ"
      ],
      [
        "ç",
        "Ļ"
      ],
      [
        "ä¸",
        "ĭ"
      ],
      [
        "é",
        "£"
      ],
      [
        "ç",
        "Ĥ"
      ],
      [
        "æ",
        "ı"
      ],
      [
        "æ",
        "¬"
      ],
      [
        "éĿ",
        "¢"
      ],
      [
        "æ",
        "Ľ"
      ],
      [
        "éĩ",
        "į"
      ],
      [
        "åĵ",
        "ģ"
      ],
      [
        "ä»",
        "ĸ"
      ],
      [
        "å»",
        "º"
      ],
      [
        "è",
        "ī"
      ],
      [
        "åĲ",
        "Į"
      ],
      [
        "æľ",
        "º"
      ],
      [
        "å®",
        "ļ"
      ],
      [
        "éĥ",
        "¨"
      ],
      [
        "å¥",
        "½"
      ],
      [
        "ç",
        "½"
      ],
      [
        "ä¸",
        "İ"
      ],
      [
        "åĬ",
        "ł"
      ],
      [
        "é",
        "¡"
      ],
      [
        "å¿",
        "ĥ"
      ],
      [
        "è®",
        "¾"
      ],
      [
        "å¸",
        "Ĥ"
      ],
      [
        "ä¹",
        "ĭ"
      ],
      [
        "åº",
        "¦"
      ],
      [
        "æ°",
        "´"
      ],
      [
        "æ³",
        "ķ"
      ],
      [
        "è",
        "ģ"
      ],
      [
        "ç",
        "¤"
      ],
      [
        "èĢ",
        "Į"
      ],
      [
        "å¼",
        "Ģ"
      ],
      [
        "é",
        "Ľ"
      ],
      [
        "åŃ",
        "Ĳ"
      ],
      [
        "ç",
        "Ĺ"
      ],
      [
        "å",
        "¢"
      ],
      [
        "æ",
        "Ļ"
      ],
      [
        "æľ",
        "¬"
      ],
      [
        "åĪ",
        "¶"
      ],
      [
        "åħ",
        "¶"
      ],
      [
        "2",
        "0"
      ],
      [
        "éĩ",
        "ı"
      ],
      [
        "å¾",
        "Ĺ"
      ],
      [
        "å",
        "Ģ"
      ],
      [
        "èĢ",
        "ħ"
      ],
      [
        "è",
        "¶"
      ],
      [
        "ç",
        "ĸ"
      ],
      [
        "éķ",
        "¿"
      ],
      [
        "è",
        "·"
      ],
      [
        "ç",
        "¬"
      ],
      [
        "æı",
        "Ĳ"
      ],
      [
        "ç",
        "¾"
      ],
      [
        "çī",
        "©"
      ],
      [
        "ç",
        "Ł"
      ],
      [
        "å¦",
        "Ĥ"
      ],
      [
        "å",
        "Ŀ"
      ],
      [
        "è",
        "°"
      ],
      [
        "æĹ",
        "¥"
      ],
      [
        "åĬ",
        "¡"
      ],
      [
        "åı",
        "Ĭ"
      ],
      [
        "æī",
        "Ģ"
      ],
      [
        "åħ",
        "³"
      ],
      [
        "åī",
        "į"
      ],
      [
        "ä¿",
        "Ŀ"
      ],
      [
        "äº",
        "ĭ"
      ],
      [
        "æ",
        "¶"
      ],
      [
        "ç®",
        "¡"
      ],
      [
        "é",
        "ļ"
      ],
      [
        "éĢ",
        "ļ"
      ],
      [
        "çĶ",
        "µ"
      ],
      [
        "æ",
        "į"
      ],
      [
        "ç",
        "Ŀ"
      ],
      [
        "é",
        "ĥ½"
      ],
      [
        "åº",
        "Ķ"
      ],
      [
        "åĨ",
        "ħ"
      ],
      [
        "ç",
        "³"
      ],
      [
        "æķ",
        "Ļ"
      ],
      [
        "åľ",
        "º"
      ],
      [
        "æľ",
        "Ī"
      ],
      [
        "ç§",
        "į"
      ],
      [
        "å",
        "§"
      ],
      [
        "ç",
        "ł"
      ],
      [
        "å°",
        "ı"
      ],
      [
        "è",
        "Ĭ"
      ],
      [
        "æĸ",
        "ĩ"
      ],
      [
        "ç",
        "©"
      ],
      [
        "ç",
        "ķ"
      ],
      [
        "åĽ",
        "ł"
      ],
      [
        "ç",
        "²"
      ],
      [
        "æĥ",
        "ħ"
      ],
      [
        "ç",
        "Ħ"
      ],
      [
        "ç",
        "´"
      ],
      [
        "èµ",
        "Ħ"
      ],
      [
        "åĮ",
        "º"
      ],
      [
        "è",
        "Ĳ"
      ],
      [
        "å¤",
        "ĸ"
      ],
      [
        "æľ",
        "Ģ"
      ],
      [
        "æĬ",
        "Ģ"
      ],
      [
        "ç§",
        "ĳ"
      ],
      [
        "å¹",
        "³"
      ],
      [
        "æ",
        "Ł"
      ],
      [
        "ç¨",
        "ĭ"
      ],
      [
        "é",
        "ħ"
      ],
      [
        "æĽ",
        "´"
      ],
      [
        "åıĳ",
        "å±ķ"
      ],
      [
        "æ°",
        "ĳ"
      ],
      [
        "å¤",
        "©"
      ],
      [
        "ç",
        "ĥ"
      ],
      [
        "æľ",
        "¯"
      ],
      [
        "é",
        "ľ"
      ],
      [
        "çĽ",
        "®"
      ],
      [
        "éĹ",
        "´"
      ],
      [
        "çĽ",
        "¸"
      ],
      [
        "è´",
        "¨"
      ],
      [
        "æĦ",
        "ı"
      ],
      [
        "ä½",
        "į"
      ],
      [
        "åĳ",
        "ĺ"
      ],
      [
        "ä¸Ń",
        "åĽ½"
      ],
      [
        "åħ",
        "¥"
      ],
      [
        "å·¥",
        "ä½ľ"
      ],
      [
        "å°",
        "Ĩ"
      ],
      [
        "å¸",
        "¸"
      ],
      [
        "æľ",
        "Ł"
      ],
      [
        "ç",
        "¡"
      ],
      [
        "æ¯",
        "Ķ"
      ],
      [
        "ä»",
        "£"
      ],
      [
        "è¡",
        "¨"
      ],
      [
        "çĤ",
        "¹"
      ],
      [
        "ç³",
        "»"
      ],
      [
        "å®",
        "ī"
      ],
      [
        "Ĥ",
        "£"
      ],
      [
        "æĶ",
        "¿"
      ],
      [
        "ç",
        "±"
      ],
      [
        "ä½",
        "¿"
      ],
      [
        "å¾",
        "Ī"
      ],
      [
        "è¯",
        "´"
      ],
      [
        "è",
        "ĥ"
      ],
      [
        "ç¬",
        "¬"
      ],
      [
        "å¼",
        "º"
      ],
      [
        "ä¸",
        "ī"
      ],
      [
        "åı",
        "¸"
      ],
      [
        "é",
        "Ķ"
      ],
      [
        "æ",
        "·"
      ],
      [
        "è¿",
        "ĺ"
      ],
      [
        "éĩ",
        "ĳ"
      ],
      [
        "ä¼",
        "ģ"
      ],
      [
        "éģ",
        "ĵ"
      ],
      [
        "çī",
        "¹"
      ],
      [
        "å½",
        "ĵ"
      ],
      [
        "æŀ",
        "ľ"
      ],
      [
        "æ´",
        "»"
      ],
      [
        "èµ",
        "·"
      ],
      [
        "ä»",
        "İ"
      ],
      [
        "è",
        "į"
      ],
      [
        "æ²",
        "»"
      ],
      [
        "å¹",
        "¶"
      ],
      [
        "ç",
        "¥"
      ],
      [
        "è",
        "Ī"
      ],
      [
        "æ¬",
        "¡"
      ],
      [
        "åı¯",
        "ä»¥"
      ],
      [
        "æ",
        "ģ"
      ],
      [
        "åĪ",
        "©"
      ],
      [
        "æĺ",
        "İ"
      ],
      [
        "çĿ",
        "Ģ"
      ],
      [
        "æŃ",
        "¤"
      ],
      [
        "çĦ",
        "¶"
      ],
      [
        "åŁ",
        "º"
      ],
      [
        "ä½",
        "Ĩ"
      ],
      [
        "ãĢ",
        "ĭ"
      ],
      [
        "ä¸",
        "ĵ"
      ],
      [
        "ä¿",
        "¡"
      ],
      [
        "ãĢ",
        "Ĭ"
      ],
      [
        "ç¾",
        "İ"
      ],
      [
        "åĲ",
        "Ħ"
      ],
      [
        "æĪĳ",
        "ä»¬"
      ],
      [
        "åħ¬",
        "åı¸"
      ],
      [
        "é",
        "Ĵ"
      ],
      [
        "åĲ",
        "į"
      ],
      [
        "ä¼ģ",
        "ä¸ļ"
      ],
      [
        "æķ",
        "°"
      ],
      [
        "é£",
        "İ"
      ],
      [
        "è®",
        "¡"
      ],
      [
        "æĪ",
        "ĸ"
      ],
      [
        "éĻ",
        "¢"
      ],
      [
        "æĮ",
        "ģ"
      ],
      [
        "æľ",
        "į"
      ],
      [
        "é",
        "ĵ"
      ],
      [
        "è",
        "ĭ"
      ],
      [
        "æĹ",
        "ł"
      ],
      [
        "å¼",
        "ı"
      ],
      [
        "äº",
        "Ľ"
      ],
      [
        "ä¸Ģ",
        "ä¸ª"
      ],
      [
        "çĹ",
        "ħ"
      ],
      [
        "ä½",
        "ł"
      ],
      [
        "èĤ",
        "²"
      ],
      [
        "é",
        "¦"
      ],
      [
        "ç",
        "ģ"
      ],
      [
        "æŃ",
        "£"
      ],
      [
        "è§",
        "£"
      ],
      [
        "åħ",
        "ļ"
      ],
      [
        "è§",
        "Ħ"
      ],
      [
        "ç»",
        "ĵ"
      ],
      [
        "æ",
        "º"
      ],
      [
        "ç",
        "¼"
      ],
      [
        "è",
        "£"
      ],
      [
        "è",
        "¢"
      ],
      [
        "èī",
        "²"
      ],
      [
        "éĢ",
        "ł"
      ],
      [
        "ç»",
        "Ł"
      ],
      [
        "åĮ",
        "»"
      ],
      [
        "æ",
        "¡"
      ],
      [
        "å¯",
        "¼"
      ],
      [
        "å",
        "ŀ"
      ],
      [
        "è",
        "º"
      ],
      [
        "å",
        "ķ"
      ],
      [
        "éľ",
        "Ģ"
      ],
      [
        "ä»",
        "»"
      ],
      [
        "å",
        "£"
      ],
      [
        "äº",
        "Į"
      ],
      [
        "å",
        "ĸ"
      ],
      [
        "ç¤",
        "¾"
      ],
      [
        "é¢",
        "ĺ"
      ],
      [
        "ç",
        "Ī"
      ],
      [
        "åĪ",
        "Ľ"
      ],
      [
        "è",
        "Ħ"
      ],
      [
        "åģ",
        "ļ"
      ],
      [
        "åħ",
        "·"
      ],
      [
        "éĩ",
        "Į"
      ],
      [
        "æ±",
        "Ĥ"
      ],
      [
        "0",
        "0"
      ],
      [
        "æ°",
        "Ķ"
      ],
      [
        "æµ",
        "ģ"
      ],
      [
        "é¡",
        "¹"
      ],
      [
        "çľ",
        "ĭ"
      ],
      [
        "åį",
        "ģ"
      ],
      [
        "çł",
        "Ķ"
      ],
      [
        "å¢",
        "ŀ"
      ],
      [
        "æĦ",
        "Ł"
      ],
      [
        "ç«",
        "ĭ"
      ],
      [
        "ç",
        "¦"
      ],
      [
        "èº",
        "«"
      ],
      [
        "è¿",
        "Ĳ"
      ],
      [
        "æį",
        "®"
      ],
      [
        "å¤",
        "Ħ"
      ],
      [
        "åħ",
        "ĥ"
      ],
      [
        "çĶ",
        "±"
      ],
      [
        "æķ",
        "Ī"
      ],
      [
        "æĥ",
        "³"
      ],
      [
        "æİ",
        "¥"
      ],
      [
        "è½",
        "¦"
      ],
      [
        "æł",
        "ĩ"
      ],
      [
        "ç²",
        "¾"
      ],
      [
        "éĹ",
        "®"
      ],
      [
        "åİ",
        "»"
      ],
      [
        "æł",
        "¡"
      ],
      [
        "ç»",
        "Ħ"
      ],
      [
        "æī",
        "ĭ"
      ],
      [
        "ä¹",
        "Ī"
      ],
      [
        "è",
        "Į"
      ],
      [
        "å·",
        "±"
      ],
      [
        "ä¼",
        "ł"
      ],
      [
        "æł",
        "·"
      ],
      [
        "åĲ",
        "ĳ"
      ],
      [
        "ç½",
        "ĳ"
      ],
      [
        "è¢",
        "«"
      ],
      [
        "éĹ",
        "¨"
      ],
      [
        "åİ",
        "Ł"
      ],
      [
        "æĬĢ",
        "æľ¯"
      ],
      [
        "çĻ",
        "½"
      ],
      [
        "ä»",
        "¶"
      ],
      [
        "æĸ",
        "Ļ"
      ],
      [
        "çĲ",
        "ĥ"
      ],
      [
        "æĢ",
        "»"
      ],
      [
        "è",
        "¥"
      ],
      [
        "æ",
        "»"
      ],
      [
        "å·",
        "²"
      ],
      [
        "åı",
        "Ĺ"
      ],
      [
        "é¢",
        "Ĩ"
      ],
      [
        "æ²",
        "¡"
      ],
      [
        "é",
        "ª"
      ],
      [
        "èĩª",
        "å·±"
      ],
      [
        "æµ",
        "·"
      ],
      [
        "è¥",
        "¿"
      ],
      [
        "è·",
        "¯"
      ],
      [
        "å¤",
        "ĩ"
      ],
      [
        "äº",
        "¤"
      ],
      [
        "çº",
        "§"
      ],
      [
        "åħ",
        "±"
      ],
      [
        "å½",
        "¢"
      ],
      [
        "å½",
        "±"
      ],
      [
        "åķ",
        "Ĩ"
      ],
      [
        "åŀ",
        "ĭ"
      ],
      [
        "æł",
        "¼"
      ],
      [
        "çİ",
        "¯"
      ],
      [
        "çŁ",
        "¥"
      ],
      [
        "ä¸",
        "¤"
      ],
      [
        "çľ",
        "ģ"
      ],
      [
        "é",
        "»"
      ],
      [
        "åı",
        "ĺ"
      ],
      [
        "åĽ½",
        "å®¶"
      ],
      [
        "æľį",
        "åĬ¡"
      ],
      [
        "é",
        "©"
      ],
      [
        "åħ",
        "Ī"
      ],
      [
        "å°",
        "ĳ"
      ],
      [
        "æĶ",
        "¹"
      ],
      [
        "ç±",
        "»"
      ],
      [
        "ä¼",
        "ĺ"
      ],
      [
        "æİ",
        "¨"
      ],
      [
        "ä¸",
        "ĩ"
      ],
      [
        "ç®¡",
        "çĲĨ"
      ],
      [
        "éĺ",
        "Ł"
      ],
      [
        "éĽ",
        "Ĩ"
      ],
      [
        "èģ",
        "Ķ"
      ],
      [
        "æ",
        "£"
      ],
      [
        "åį",
        "ķ"
      ],
      [
        "å",
        "Ļ"
      ],
      [
        "è°",
        "ĥ"
      ],
      [
        "è",
        "İ"
      ],
      [
        "è¿Ľ",
        "è¡Į"
      ],
      [
        "ä¹",
        "ł"
      ],
      [
        "å±",
        "±"
      ],
      [
        "èĩ",
        "³"
      ],
      [
        "é",
        "Ĥ£"
      ],
      [
        "éĺ",
        "²"
      ],
      [
        "æ·",
        "±"
      ],
      [
        "å¸",
        "Ī"
      ],
      [
        "çĸ",
        "Ĺ"
      ],
      [
        "æ",
        "¢"
      ],
      [
        "ç¤",
        "º"
      ],
      [
        "æĶ",
        "¶"
      ],
      [
        "å¹",
        "¿"
      ],
      [
        "æº",
        "Ĳ"
      ],
      [
        "ä¸",
        "ĸ"
      ],
      [
        "é£",
        "Ł"
      ],
      [
        "æĬ",
        "¥"
      ],
      [
        "åı",
        "ª"
      ],
      [
        "äº§",
        "åĵģ"
      ],
      [
        "è¾",
        "ĥ"
      ],
      [
        "åį",
        "Ĺ"
      ],
      [
        "æŀ",
        "Ħ"
      ],
      [
        "æ",
        "®"
      ],
      [
        "å®",
        "Į"
      ],
      [
        "è",
        "Ļ"
      ],
      [
        "æĶ",
        "¾"
      ],
      [
        "æĮ",
        "ĩ"
      ],
      [
        "å»º",
        "è®¾"
      ],
      [
        "ä¾",
        "Ľ"
      ],
      [
        "åı",
        "ĸ"
      ],
      [
        "ä¸",
        "ľ"
      ],
      [
        "èµ",
        "Ľ"
      ],
      [
        "æī",
        "į"
      ],
      [
        "è®",
        "¤"
      ],
      [
        "ç¤¾",
        "ä¼ļ"
      ],
      [
        "æĸ",
        "½"
      ],
      [
        "åĻ",
        "¨"
      ],
      [
        "åı",
        "£"
      ],
      [
        "æ",
        "¨"
      ],
      [
        "è¾",
        "¾"
      ],
      [
        "ä¹",
        "¦"
      ],
      [
        "èĲ",
        "¥"
      ],
      [
        "éĢ",
        "ī"
      ],
      [
        "åŁ",
        "İ"
      ],
      [
        "èĬ",
        "Ĥ"
      ],
      [
        "æ³",
        "¨"
      ],
      [
        "è®",
        "°"
      ],
      [
        "æ",
        "¼"
      ],
      [
        "çº",
        "¿"
      ],
      [
        "èĢ",
        "ģ"
      ],
      [
        "çĥ",
        "Ń"
      ],
      [
        "å¸",
        "¦"
      ],
      [
        "åĮ",
        "Ĺ"
      ],
      [
        "è®",
        "©"
      ],
      [
        "éĿ",
        "ŀ"
      ],
      [
        "ç¥",
        "ŀ"
      ],
      [
        "åĽ",
        "Ľ"
      ],
      [
        "æĪ",
        "ĺ"
      ],
      [
        "å®",
        "¹"
      ],
      [
        "è¿",
        "ĳ"
      ],
      [
        "è£",
        "ħ"
      ],
      [
        "ä»",
        "·"
      ],
      [
        "è¯",
        "ģ"
      ],
      [
        "çķ",
        "Į"
      ],
      [
        "èĢ",
        "ĥ"
      ],
      [
        "åĪ",
        "«"
      ],
      [
        "ç¡",
        "®"
      ],
      [
        "æ¯",
        "ı"
      ],
      [
        "éĹ®",
        "é¢ĺ"
      ],
      [
        "åħ",
        "ī"
      ],
      [
        "ç´",
        "ł"
      ],
      [
        "æķĻ",
        "èĤ²"
      ],
      [
        "åĩ",
        "Ĩ"
      ],
      [
        "å",
        "²"
      ],
      [
        "æµ",
        "İ"
      ],
      [
        "æĿ",
        "¡"
      ],
      [
        "åĽ",
        "¢"
      ],
      [
        "å§",
        "Ķ"
      ],
      [
        "åı",
        "°"
      ],
      [
        "åĨ",
        "³"
      ],
      [
        "è",
        "ħ"
      ],
      [
        "æĬ",
        "¤"
      ],
      [
        "è",
        "±"
      ],
      [
        "ç",
        "Ĭ"
      ],
      [
        "æĺ",
        "ĵ"
      ],
      [
        "åĬ",
        "Ł"
      ],
      [
        "å¢",
        "ĥ"
      ],
      [
        "æī",
        "ĵ"
      ],
      [
        "å¥",
        "³"
      ],
      [
        "çĽ",
        "´"
      ],
      [
        "æŃ",
        "¥"
      ],
      [
        "æķ",
        "´"
      ],
      [
        "æ²¡",
        "æľī"
      ],
      [
        "ä½",
        "İ"
      ],
      [
        "å",
        "Ķ"
      ],
      [
        "äº",
        "Ķ"
      ],
      [
        "æĢ",
        "Ŀ"
      ],
      [
        "ç",
        "ħ"
      ],
      [
        "æĬ",
        "Ĭ"
      ],
      [
        "æĶ",
        "¯"
      ],
      [
        "çľ",
        "Ł"
      ],
      [
        "20",
        "1"
      ],
      [
        "åĽ",
        "ŀ"
      ],
      [
        "æ¸",
        "ħ"
      ],
      [
        "åħ",
        "»"
      ],
      [
        "è§",
        "Ĥ"
      ],
      [
        "ç©",
        "º"
      ],
      [
        "ä¹",
        "ī"
      ],
      [
        "ç©",
        "¶"
      ],
      [
        "ç»",
        "Ļ"
      ],
      [
        "å±",
        "Ģ"
      ],
      [
        "çĶŁ",
        "äº§"
      ],
      [
        "èģ",
        "Į"
      ],
      [
        "æĬ",
        "ķ"
      ],
      [
        "åĬ",
        "ŀ"
      ],
      [
        "å¤",
        "´"
      ],
      [
        "éĻ",
        "ħ"
      ],
      [
        "å",
        "ĭ"
      ],
      [
        "ç»ı",
        "æµİ"
      ],
      [
        "åĮ",
        "ħ"
      ],
      [
        "å®",
        "ĥ"
      ],
      [
        "è§",
        "Ĩ"
      ],
      [
        "ä½¿",
        "çĶ¨"
      ],
      [
        "æĪ",
        "·"
      ],
      [
        "è´",
        "¹"
      ],
      [
        "å¼",
        "ķ"
      ],
      [
        "æ¶",
        "Ī"
      ],
      [
        "éľĢ",
        "è¦ģ"
      ],
      [
        "æĿ",
        "Ĳ"
      ],
      [
        "åĬ",
        "©"
      ],
      [
        "å¸Ĥ",
        "åľº"
      ],
      [
        "æģ",
        "¯"
      ],
      [
        "èį",
        "¯"
      ],
      [
        "ç§",
        "¯"
      ],
      [
        "çİ",
        "ĩ"
      ],
      [
        "è",
        "¨"
      ],
      [
        "åı",
        "Ĥ"
      ],
      [
        "ç»",
        "´"
      ],
      [
        "æł",
        "¹"
      ],
      [
        "è¯",
        "¥"
      ],
      [
        "é",
        "¥"
      ],
      [
        "Ġ",
        ","
      ],
      [
        "å¤",
        "į"
      ],
      [
        "å¿",
        "«"
      ],
      [
        "éĢļ",
        "è¿ĩ"
      ],
      [
        "è¯",
        "Ĩ"
      ],
      [
        "å°±",
        "æĺ¯"
      ],
      [
        "èĩ",
        "´"
      ],
      [
        "ä»",
        "Ĭ"
      ],
      [
        "è®",
        "®"
      ],
      [
        "éĩį",
        "è¦ģ"
      ],
      [
        "å¸",
        "ĥ"
      ],
      [
        "åĨ",
        "į"
      ],
      [
        "æĸ",
        "¯"
      ],
      [
        "å®",
        "¢"
      ],
      [
        "è",
        "ı"
      ],
      [
        "æŁ",
        "¥"
      ],
      [
        "éĢ",
        "Ł"
      ],
      [
        "ç",
        "ı"
      ],
      [
        "æĢ",
        "ģ"
      ],
      [
        "åį",
        "ĩ"
      ],
      [
        "å",
        "Ħ"
      ],
      [
        "è®",
        "º"
      ],
      [
        "ä¸ĵ",
        "ä¸ļ"
      ],
      [
        "æ",
        "Ĥ£"
      ],
      [
        "æŀ",
        "ģ"
      ],
      [
        "è½",
        "¬"
      ],
      [
        "å®ī",
        "åħ¨"
      ],
      [
        "æ",
        "Ĥ"
      ],
      [
        "çłĶ",
        "ç©¶"
      ],
      [
        "è§",
        "ģ"
      ],
      [
        "è´",
        "£"
      ],
      [
        "å¿",
        "ħ"
      ],
      [
        "èĬ",
        "±"
      ],
      [
        "çĶŁ",
        "æ´»"
      ],
      [
        "åĿ",
        "ļ"
      ],
      [
        "åį",
        "İ"
      ],
      [
        "éª",
        "Į"
      ],
      [
        "æĸ",
        "Ń"
      ],
      [
        "é",
        "Ł"
      ],
      [
        "åı",
        "į"
      ],
      [
        "éĻ",
        "Ĳ"
      ],
      [
        "1",
        "0"
      ],
      [
        "è¶",
        "Ĭ"
      ],
      [
        "åĵ",
        "į"
      ],
      [
        "å¾",
        "·"
      ],
      [
        "åİ",
        "Ĩ"
      ],
      [
        "å¦Ĥ",
        "æŀľ"
      ],
      [
        "å¹",
        "²"
      ],
      [
        "ç»",
        "Ń"
      ],
      [
        "æİ",
        "§"
      ],
      [
        "åĨ",
        "µ"
      ],
      [
        "å",
        "¡"
      ],
      [
        "åĳ",
        "½"
      ],
      [
        "ä¸»",
        "è¦ģ"
      ],
      [
        "è¶",
        "³"
      ],
      [
        "æ",
        "ħ"
      ],
      [
        "åģ",
        "¥"
      ],
      [
        "çĪ",
        "±"
      ],
      [
        "æ¸",
        "¸"
      ],
      [
        "æĹ¶",
        "éĹ´"
      ],
      [
        "æ",
        "¹"
      ],
      [
        "è",
        "ĳ"
      ],
      [
        "è¯",
        "Ŀ"
      ],
      [
        "ç",
        "ĭ"
      ],
      [
        "åĨ",
        "Ľ"
      ],
      [
        "æĸĩ",
        "åĮĸ"
      ],
      [
        "æ¨",
        "¡"
      ],
      [
        "æ£",
        "Ģ"
      ],
      [
        "æĿ",
        "ĥ"
      ],
      [
        "ä¸",
        "Ķ"
      ],
      [
        "ä»ĸ",
        "ä»¬"
      ],
      [
        "ä½",
        "ķ"
      ],
      [
        "èĮ",
        "ĥ"
      ],
      [
        "éĢ",
        "Ĥ"
      ],
      [
        "ç",
        "¢"
      ],
      [
        "çļĦ",
        "äºº"
      ],
      [
        "åŁ",
        "Ł"
      ],
      [
        "è¶",
        "ħ"
      ],
      [
        "èİ",
        "·"
      ],
      [
        "è¯",
        "ķ"
      ],
      [
        "æ¸",
        "©"
      ],
      [
        "è",
        "ŀ"
      ],
      [
        "å·",
        "ŀ"
      ],
      [
        "åĪ",
        "Ļ"
      ],
      [
        "é¦",
        "ĸ"
      ],
      [
        "éĩ",
        "ĩ"
      ],
      [
        "æĸ¹",
        "éĿ¢"
      ],
      [
        "é¡¹",
        "çĽ®"
      ],
      [
        "åĢ",
        "¼"
      ],
      [
        "åĨ",
        "ľ"
      ],
      [
        "å§",
        "ĭ"
      ],
      [
        "åĳ",
        "Ĭ"
      ],
      [
        "èī",
        "º"
      ],
      [
        "ç§",
        "°"
      ],
      [
        "æİ",
        "Ĵ"
      ],
      [
        "éļ",
        "¾"
      ],
      [
        "åº",
        "·"
      ],
      [
        "åĬ",
        "¿"
      ],
      [
        "åİ",
        "ĭ"
      ],
      [
        "ç",
        "ª"
      ],
      [
        "æľ",
        "ª"
      ],
      [
        "ä»",
        "Ģ"
      ],
      [
        "åĳ",
        "¨"
      ],
      [
        "è¡",
        "Ģ"
      ],
      [
        "æ¡",
        "Ī"
      ],
      [
        "åŃ",
        "Ĺ"
      ],
      [
        "æ²",
        "¹"
      ],
      [
        "å·¥",
        "ç¨ĭ"
      ],
      [
        "åħ",
        "ĭ"
      ],
      [
        "çĬ",
        "¶"
      ],
      [
        "ç»",
        "ĩ"
      ],
      [
        "åĦ",
        "¿"
      ],
      [
        "âĢĿ",
        ","
      ],
      [
        "åı",
        "Ī"
      ],
      [
        "åı",
        "²"
      ],
      [
        "æĺ",
        "¾"
      ],
      [
        "åŃ",
        "ĺ"
      ],
      [
        "ä¸",
        "¥"
      ],
      [
        "åŁ",
        "¹"
      ],
      [
        "ç³»",
        "ç»Ł"
      ],
      [
        "æ±",
        "Ł"
      ],
      [
        "æµ",
        "ĭ"
      ],
      [
        "éħ",
        "į"
      ],
      [
        "1",
        "9"
      ],
      [
        "åħ·",
        "æľī"
      ],
      [
        "æ²»",
        "çĸĹ"
      ],
      [
        "éĻ",
        "¤"
      ],
      [
        "ä¸ĸ",
        "çķĮ"
      ],
      [
        "åı¯",
        "èĥ½"
      ],
      [
        "æıĲ",
        "ä¾Ľ"
      ],
      [
        "å½±",
        "åĵį"
      ],
      [
        "ä¹",
        "Ĳ"
      ],
      [
        "ä¾",
        "¿"
      ],
      [
        "é©",
        "¬"
      ],
      [
        "è¿Ļ",
        "ä¸ª"
      ],
      [
        "ä¼",
        "Ĺ"
      ],
      [
        "åĢ",
        "Ļ"
      ],
      [
        "åį",
        "ı"
      ],
      [
        "æĪ",
        "¿"
      ],
      [
        "å¥",
        "¹"
      ],
      [
        "âĢ",
        "Ķ"
      ],
      [
        "è¦ģ",
        "æ±Ĥ"
      ],
      [
        "åĪ",
        "Ĵ"
      ],
      [
        "äºº",
        "æ°ĳ"
      ],
      [
        "çļ",
        "®"
      ],
      [
        "åŃ¦",
        "çĶŁ"
      ],
      [
        "åŃ¦",
        "ä¹ł"
      ],
      [
        "ç»",
        "Ĩ"
      ],
      [
        "ä»Ģ",
        "ä¹Ī"
      ],
      [
        "å¥½",
        "çļĦ"
      ],
      [
        "è®¾",
        "è®¡"
      ],
      [
        "è¡Į",
        "ä¸ļ"
      ],
      [
        "çİ¯",
        "å¢ĥ"
      ],
      [
        "åĪ",
        "ĩ"
      ],
      [
        "è´¨",
        "éĩı"
      ],
      [
        "éĿ",
        "Ĵ"
      ],
      [
        "èĲ",
        "½"
      ],
      [
        "ç«",
        "Ļ"
      ],
      [
        "æĥħ",
        "åĨµ"
      ],
      [
        "ç±",
        "³"
      ],
      [
        "åĲĮ",
        "æĹ¶"
      ],
      [
        "ç",
        "Į"
      ],
      [
        "çī",
        "ĩ"
      ],
      [
        "åľ",
        "Ł"
      ],
      [
        "å±",
        "Ĥ"
      ],
      [
        "æľ",
        "Ľ"
      ],
      [
        "çº",
        "¦"
      ],
      [
        "çĽ",
        "ĳ"
      ],
      [
        "äº§",
        "ä¸ļ"
      ],
      [
        "ãĢĤ",
        "âĢĿ"
      ],
      [
        "å°",
        "Ķ"
      ],
      [
        "äº",
        "¬"
      ],
      [
        "èĥ½",
        "åĬĽ"
      ],
      [
        "åĽł",
        "ä¸º"
      ],
      [
        "å£",
        "«"
      ],
      [
        "èŀ",
        "į"
      ],
      [
        "æ",
        "¥"
      ],
      [
        "åį",
        "³"
      ],
      [
        "çİ",
        "ĭ"
      ],
      [
        "æ",
        "ļ"
      ],
      [
        "åĪĽ",
        "æĸ°"
      ],
      [
        "æīĢ",
        "ä»¥"
      ],
      [
        "çģ",
        "«"
      ],
      [
        "å¼",
        "ł"
      ],
      [
        "å±",
        "ŀ"
      ],
      [
        "æ",
        "Ĵ"
      ],
      [
        "èµ",
        "°"
      ],
      [
        "çŁ",
        "³"
      ],
      [
        "å¤",
        "±"
      ],
      [
        "éĻ",
        "į"
      ],
      [
        "æ¼",
        "Ķ"
      ],
      [
        "çħ",
        "§"
      ],
      [
        "è®¾",
        "å¤ĩ"
      ],
      [
        "è±",
        "¡"
      ],
      [
        "åĩ",
        "ł"
      ],
      [
        "é",
        "¾"
      ],
      [
        "æ´»",
        "åĬ¨"
      ],
      [
        "ä»¥",
        "åıĬ"
      ],
      [
        "æ",
        "ĳ"
      ],
      [
        "å¤",
        "ª"
      ],
      [
        "éĿ",
        "©"
      ],
      [
        "æĺ¯",
        "ä¸Ģ"
      ],
      [
        "åĸ",
        "Ħ"
      ],
      [
        "åħ",
        "ħ"
      ],
      [
        "éļ",
        "ı"
      ],
      [
        "é¢",
        "Ħ"
      ],
      [
        "æī",
        "¿"
      ],
      [
        "æıĲ",
        "é«ĺ"
      ],
      [
        "æĿ",
        "ĳ"
      ],
      [
        "çº",
        "¢"
      ],
      [
        "ç¦",
        "»"
      ],
      [
        "éĶ",
        "Ģ"
      ],
      [
        "ç»Ħ",
        "ç»ĩ"
      ],
      [
        "åº",
        "ľ"
      ],
      [
        "å",
        "ĥ"
      ],
      [
        "æŀ",
        "Ĺ"
      ],
      [
        "æ»",
        "¡"
      ],
      [
        "æĤ£",
        "èĢħ"
      ],
      [
        "ä¿¡",
        "æģ¯"
      ],
      [
        "å¾",
        "Ģ"
      ],
      [
        "åħ",
        "į"
      ],
      [
        "æ®",
        "µ"
      ],
      [
        "å¯",
        "Į"
      ],
      [
        "æł",
        "¸"
      ],
      [
        "èī",
        "¯"
      ],
      [
        "çļĦ",
        "ä¸Ģ"
      ],
      [
        "çĻ",
        "¾"
      ],
      [
        "ä»",
        "ħ"
      ],
      [
        "å",
        "¨"
      ],
      [
        "ä½ľ",
        "ä¸º"
      ],
      [
        "çĽ",
        "Ĭ"
      ],
      [
        "åĪ",
        "Ĺ"
      ],
      [
        "æ",
        "ĵ"
      ],
      [
        "æ",
        "¿"
      ],
      [
        "ç½",
        "®"
      ],
      [
        "ä¸į",
        "åĲĮ"
      ],
      [
        "æĻ",
        "º"
      ],
      [
        "åŃ",
        "©"
      ],
      [
        "å¤§",
        "çļĦ"
      ],
      [
        "éĻ",
        "©"
      ],
      [
        "ä¾",
        "ĭ"
      ],
      [
        "é",
        "Ĥ"
      ],
      [
        "çŃ",
        "ĸ"
      ],
      [
        "å®",
        "¤"
      ],
      [
        "æĻ",
        "¯"
      ],
      [
        "ä¾",
        "Ŀ"
      ],
      [
        "å",
        "ł"
      ],
      [
        "å¤",
        "Ł"
      ],
      [
        "çī",
        "Į"
      ],
      [
        "ä¸Ń",
        "å¿ĥ"
      ],
      [
        "æĿ",
        "¿"
      ],
      [
        "åŃ¦",
        "æł¡"
      ],
      [
        "ç²¾",
        "ç¥ŀ"
      ],
      [
        "ä½ľ",
        "çĶ¨"
      ],
      [
        "åĩ",
        "ı"
      ],
      [
        "äº",
        "¿"
      ],
      [
        "è¯",
        "Ħ"
      ],
      [
        "è´",
        "Ł"
      ],
      [
        "äº",
        "ļ"
      ],
      [
        "è¨",
        "Ģ"
      ],
      [
        "äºº",
        "åĳĺ"
      ],
      [
        "æĪĲ",
        "ä¸º"
      ],
      [
        "äº",
        "ī"
      ],
      [
        "äºº",
        "çļĦ"
      ],
      [
        "åĽ",
        "´"
      ],
      [
        "å¾Ī",
        "å¤ļ"
      ],
      [
        "è¿Ļ",
        "æł·"
      ],
      [
        "ä¸Ń",
        "çļĦ"
      ],
      [
        "åı",
        "·"
      ],
      [
        "åĽ½",
        "éĻħ"
      ],
      [
        "åĽ",
        "Ń"
      ],
      [
        "æ",
        "Ĳ"
      ],
      [
        "è®",
        "¸"
      ],
      [
        "ä½",
        "ı"
      ],
      [
        "éĺ",
        "³"
      ],
      [
        "å¿",
        "µ"
      ],
      [
        "ç¾",
        "¤"
      ],
      [
        "ä¹Ł",
        "æĺ¯"
      ],
      [
        "ä¿",
        "®"
      ],
      [
        "å¿",
        "Ĺ"
      ],
      [
        "åı",
        "ĭ"
      ],
      [
        "æĶ¿",
        "åºľ"
      ],
      [
        "åĽ",
        "¾"
      ],
      [
        "éĿŀ",
        "å¸¸"
      ],
      [
        "åĲ",
        "«"
      ],
      [
        "æ²",
        "³"
      ],
      [
        "æĮ",
        "ī"
      ],
      [
        "æĭ",
        "©"
      ],
      [
        "æĹ",
        "©"
      ],
      [
        "è",
        "ª"
      ],
      [
        "ä»",
        "½"
      ],
      [
        "åĲ",
        "ĥ"
      ],
      [
        "åĩº",
        "çİ°"
      ],
      [
        "è¿",
        "ŀ"
      ],
      [
        "å¾",
        "ĭ"
      ],
      [
        "çĹ",
        "ĩ"
      ],
      [
        "å®ŀ",
        "çİ°"
      ],
      [
        "âĢĿ",
        "ãĢĤ"
      ],
      [
        "èĤ",
        "¡"
      ],
      [
        "ç¬¬",
        "ä¸Ģ"
      ],
      [
        "ç»",
        "Ī"
      ],
      [
        "åı",
        "Į"
      ],
      [
        "åĿ",
        "ĩ"
      ],
      [
        "è¿",
        "ľ"
      ],
      [
        "æĭ",
        "ī"
      ],
      [
        "éħ",
        "Ĵ"
      ],
      [
        "è¯",
        "Ń"
      ],
      [
        "ç§ĳ",
        "æĬĢ"
      ],
      [
        "åİ",
        "¿"
      ],
      [
        "äº",
        "Ĵ"
      ],
      [
        "ç®",
        "Ĺ"
      ],
      [
        "å·²",
        "ç»ı"
      ],
      [
        "è¿Ļ",
        "äºĽ"
      ],
      [
        "åĲĪ",
        "ä½ľ"
      ],
      [
        "ç§ĳ",
        "åŃ¦"
      ],
      [
        "å¯",
        "Ĩ"
      ],
      [
        "åı",
        "¤"
      ],
      [
        "ä¸Ģ",
        "äºĽ"
      ],
      [
        "é»",
        "Ħ"
      ],
      [
        "çĽ¸",
        "åħ³"
      ],
      [
        "æ¿",
        "Ģ"
      ],
      [
        "å¯¹",
        "äºİ"
      ],
      [
        "åģ¥",
        "åº·"
      ],
      [
        "ä¸Ģ",
        "å®ļ"
      ],
      [
        "èĩªå·±",
        "çļĦ"
      ],
      [
        "åħ¨",
        "åĽ½"
      ],
      [
        "éĢī",
        "æĭ©"
      ],
      [
        "è§",
        "Ĵ"
      ],
      [
        "è®",
        "²"
      ],
      [
        "æĻ",
        "®"
      ],
      [
        "ç",
        "Ĩ"
      ],
      [
        "å¤§",
        "åŃ¦"
      ],
      [
        "æĹ¶",
        "åĢĻ"
      ],
      [
        "å®",
        "³"
      ],
      [
        "è§",
        "ī"
      ],
      [
        "èĪ",
        "¬"
      ],
      [
        "å¤Ħ",
        "çĲĨ"
      ],
      [
        "åħ",
        "´"
      ],
      [
        "å",
        "Ĥ"
      ],
      [
        "ä¸į",
        "æĺ¯"
      ],
      [
        "æĿĲ",
        "æĸĻ"
      ],
      [
        "è´",
        "¢"
      ],
      [
        "æŁ",
        "ĵ"
      ],
      [
        "éŁ",
        "³"
      ],
      [
        "ä½Ĩ",
        "æĺ¯"
      ],
      [
        "è¯",
        "·"
      ],
      [
        "1",
        "2"
      ],
      [
        "åŃ©",
        "åŃĲ"
      ],
      [
        "è¿ĩ",
        "ç¨ĭ"
      ],
      [
        "ä¸į",
        "æĸŃ"
      ],
      [
        "æĬķ",
        "èµĦ"
      ],
      [
        "è®",
        "Ń"
      ],
      [
        "åħ¶",
        "ä»ĸ"
      ],
      [
        "åĥ",
        "ı"
      ],
      [
        "åĽł",
        "æŃ¤"
      ],
      [
        "æł¹",
        "æį®"
      ],
      [
        "éĴ",
        "¢"
      ],
      [
        "çĽ®",
        "åīį"
      ],
      [
        "åĪ°",
        "äºĨ"
      ],
      [
        "å¾",
        "®"
      ],
      [
        "Ġ",
        "ãĢĤ"
      ],
      [
        "æĿ",
        "İ"
      ],
      [
        "åŁº",
        "ç¡"
      ],
      [
        "æī",
        "¹"
      ],
      [
        "æķ",
        "ħ"
      ],
      [
        "å",
        "©"
      ],
      [
        "çŃ",
        "ĳ"
      ],
      [
        "æĹ",
        "ı"
      ],
      [
        "ä»¥",
        "ä¸Ĭ"
      ],
      [
        "éħ",
        "¸"
      ],
      [
        "åŁºç¡",
        "Ģ"
      ],
      [
        "åĪ",
        "Ŀ"
      ],
      [
        "èĭ",
        "±"
      ],
      [
        "åĲ",
        "¸"
      ],
      [
        "ä¸į",
        "èĥ½"
      ],
      [
        "åĶ",
        "®"
      ],
      [
        "é¡",
        "»"
      ],
      [
        "æĸ¹",
        "å¼ı"
      ],
      [
        "åıĳ",
        "çĶŁ"
      ],
      [
        "çľ",
        "¼"
      ],
      [
        "è½",
        "»"
      ],
      [
        "ç¦",
        "ı"
      ],
      [
        "æķ°",
        "æį®"
      ],
      [
        "åŁİ",
        "å¸Ĥ"
      ],
      [
        "éĵ",
        "¶"
      ],
      [
        "è",
        "Ń"
      ],
      [
        "æľ",
        "¨"
      ],
      [
        "çĶ",
        "·"
      ],
      [
        "è¡¨",
        "ç¤º"
      ],
      [
        "ç¨",
        "³"
      ],
      [
        "åī",
        "¯"
      ],
      [
        "éĥ¨",
        "åĪĨ"
      ],
      [
        "æłĩ",
        "åĩĨ"
      ],
      [
        "ç",
        "ĵ"
      ],
      [
        "ä¸",
        "¾"
      ],
      [
        "æ",
        "¤"
      ],
      [
        "é¦",
        "Ļ"
      ],
      [
        "åĮ»",
        "éĻ¢"
      ],
      [
        "è",
        "Ĩ"
      ],
      [
        "åŃ",
        "£"
      ],
      [
        "å¤§",
        "å®¶"
      ],
      [
        "å±",
        "ħ"
      ],
      [
        "éĥ¨",
        "éĹ¨"
      ],
      [
        "éĵ",
        "ģ"
      ],
      [
        "æŃ",
        "¢"
      ],
      [
        "åįķ",
        "ä½į"
      ],
      [
        "æ¬",
        "¾"
      ],
      [
        "å°",
        "½"
      ],
      [
        "20",
        "0"
      ],
      [
        "æĭ",
        "¬"
      ],
      [
        "åºĶ",
        "çĶ¨"
      ],
      [
        "çı",
        "Ń"
      ],
      [
        "åİ",
        "Ĥ"
      ],
      [
        "åĳ",
        "³"
      ],
      [
        "åħ¶",
        "ä¸Ń"
      ],
      [
        "åī",
        "Ĥ"
      ],
      [
        "éĥ½",
        "æĺ¯"
      ],
      [
        "è¾",
        "¹"
      ],
      [
        "æ±",
        "½"
      ],
      [
        "è¯",
        "¾"
      ],
      [
        "çĸ",
        "«"
      ],
      [
        "çļĦ",
        "æĺ¯"
      ],
      [
        "åį",
        "«"
      ],
      [
        "èµĦ",
        "æºĲ"
      ],
      [
        "èĥ½",
        "å¤Ł"
      ],
      [
        "ä¼",
        "¤"
      ],
      [
        "å¼Ģ",
        "å§ĭ"
      ],
      [
        "è¾",
        "ĵ"
      ],
      [
        "ç®",
        "Ģ"
      ],
      [
        "å£",
        "°"
      ],
      [
        "çķ",
        "¥"
      ],
      [
        "1",
        "1"
      ],
      [
        "åº",
        "ķ"
      ],
      [
        "ä¸Ģ",
        "èĪ¬"
      ],
      [
        "ä»",
        "ĭ"
      ],
      [
        "çº",
        "ª"
      ],
      [
        "ç",
        "£"
      ],
      [
        "æĬ",
        "Ĺ"
      ],
      [
        "å·¥",
        "ä¸ļ"
      ],
      [
        "éļ",
        "ľ"
      ],
      [
        ":",
        "âĢľ"
      ],
      [
        "æľī",
        "éĻĲ"
      ],
      [
        "èģ",
        "ļ"
      ],
      [
        "åİĨ",
        "åı²"
      ],
      [
        "æĸ¹",
        "æ³ķ"
      ],
      [
        "è¡",
        "¥"
      ],
      [
        "çª",
        "ģ"
      ],
      [
        "åį",
        "Ĭ"
      ],
      [
        "ä¸»",
        "ä¹ī"
      ],
      [
        "å»º",
        "çŃĳ"
      ],
      [
        "å¥",
        "ĸ"
      ],
      [
        "è",
        "Ĵ"
      ],
      [
        "å®",
        "Ŀ"
      ],
      [
        "åħ¨",
        "éĿ¢"
      ],
      [
        "çĻ",
        "ľ"
      ],
      [
        "çł",
        "´"
      ],
      [
        "å®",
        "£"
      ],
      [
        "çĻľ",
        "é£İ"
      ],
      [
        "é",
        "²"
      ],
      [
        "çĻ½",
        "çĻľé£İ"
      ],
      [
        "åĮħ",
        "æĭ¬"
      ],
      [
        "æ",
        "½"
      ],
      [
        "æ¶",
        "²"
      ],
      [
        "åħ",
        "«"
      ],
      [
        "ä¿",
        "ĥ"
      ],
      [
        "æĭ",
        "ħ"
      ],
      [
        "å®",
        "ĺ"
      ],
      [
        "ç½",
        "Ĺ"
      ],
      [
        "åĸ",
        "ľ"
      ],
      [
        "äº",
        "²"
      ],
      [
        "å¸",
        "Į"
      ],
      [
        "ç¾İ",
        "åĽ½"
      ],
      [
        "åĬŁ",
        "èĥ½"
      ],
      [
        "æ°´",
        "å¹³"
      ],
      [
        "éĽĨ",
        "åĽ¢"
      ],
      [
        "ç",
        "ĩ"
      ],
      [
        "å¼Ģ",
        "å±ķ"
      ],
      [
        "æľº",
        "æŀĦ"
      ],
      [
        "æĽ",
        "¾"
      ],
      [
        "è¿Ļ",
        "ç§į"
      ],
      [
        "ç¼",
        "º"
      ],
      [
        "èİ·",
        "å¾Ĺ"
      ],
      [
        "å®",
        "¡"
      ],
      [
        "åį",
        "´"
      ],
      [
        "çĶ±",
        "äºİ"
      ],
      [
        "åľ°",
        "åĮº"
      ],
      [
        "æĹ",
        "ħ"
      ],
      [
        "æĺ",
        "Ł"
      ],
      [
        "ç§¯",
        "æŀģ"
      ],
      [
        "æ¯",
        "Ĵ"
      ],
      [
        "åĨ",
        "·"
      ],
      [
        "ç",
        "¿"
      ],
      [
        "åħ",
        "Ń"
      ],
      [
        "é¢Ĩ",
        "åŁŁ"
      ],
      [
        "æĺ",
        "¥"
      ],
      [
        "ä»£",
        "è¡¨"
      ],
      [
        "Ġ",
        "ãĢģ"
      ],
      [
        "åį",
        "°"
      ],
      [
        "æŀ",
        "Ĳ"
      ],
      [
        "å¿ħ",
        "é¡»"
      ],
      [
        "é¾",
        "Ļ"
      ],
      [
        "çİ°",
        "åľ¨"
      ],
      [
        "å·",
        "®"
      ],
      [
        "åĿļ",
        "æĮģ"
      ],
      [
        "æ³¨",
        "æĦı"
      ],
      [
        "é",
        "Ĩ"
      ],
      [
        "çĶ",
        "»"
      ],
      [
        "è",
        "Ĺ"
      ],
      [
        "ä¿Ŀ",
        "æĬ¤"
      ],
      [
        "å¸",
        "®"
      ],
      [
        "æĪĸ",
        "èĢħ"
      ],
      [
        "æĪĳ",
        "åĽ½"
      ],
      [
        "åĮĹ",
        "äº¬"
      ],
      [
        "3",
        "0"
      ],
      [
        "ç»ĵ",
        "æŀĦ"
      ],
      [
        "çĭ",
        "¬"
      ],
      [
        "åı",
        "¦"
      ],
      [
        "çķ",
        "Ļ"
      ],
      [
        "1",
        "5"
      ],
      [
        "æ±",
        "¡"
      ],
      [
        "åį",
        "ļ"
      ],
      [
        "ä¸",
        "´"
      ],
      [
        "åĬł",
        "å¼º"
      ],
      [
        "é¢Ĩ",
        "å¯¼"
      ],
      [
        "æĶ¹",
        "éĿ©"
      ],
      [
        "å¢ŀ",
        "éķ¿"
      ],
      [
        "20",
        "2"
      ],
      [
        "ç",
        "¯"
      ],
      [
        "å·",
        "´"
      ],
      [
        "ä½",
        "Ļ"
      ],
      [
        "æıĲ",
        "åįĩ"
      ],
      [
        "æī",
        "§"
      ],
      [
        "åī",
        "§"
      ],
      [
        "çĸ",
        "¾"
      ],
      [
        "ä¸Ģ",
        "æŃ¥"
      ],
      [
        "ç»",
        "¼"
      ],
      [
        "ç»",
        "§"
      ],
      [
        "äº",
        "ĳ"
      ],
      [
        "å¢ŀ",
        "åĬł"
      ],
      [
        "ä¸",
        "°"
      ],
      [
        "æ¯Ķ",
        "è¾ĥ"
      ],
      [
        "è´",
        "Ń"
      ],
      [
        "é»",
        "ĳ"
      ],
      [
        "ç´",
        "§"
      ],
      [
        "é",
        "¸"
      ],
      [
        "åĽ",
        "º"
      ],
      [
        "åį",
        "ł"
      ],
      [
        "è§Ħ",
        "å®ļ"
      ],
      [
        "ç¨",
        "İ"
      ],
      [
        "äºĨ",
        "è§£"
      ],
      [
        "éĢ",
        "ģ"
      ],
      [
        "æİ§",
        "åĪ¶"
      ],
      [
        "æĹ¶",
        "ä»£"
      ],
      [
        "é",
        "º"
      ],
      [
        "åĬ",
        "³"
      ],
      [
        "å¾",
        "ħ"
      ],
      [
        "å¼",
        "Ĥ"
      ],
      [
        "å¾",
        "ģ"
      ],
      [
        "æ¹",
        "ĸ"
      ],
      [
        "å½¢",
        "æĪĲ"
      ],
      [
        "åŁº",
        "æľ¬"
      ],
      [
        "å®Į",
        "æĪĲ"
      ],
      [
        "èĳ",
        "Ĺ"
      ],
      [
        "çİ°",
        "ä»£"
      ],
      [
        "æĶ¿",
        "çŃĸ"
      ],
      [
        "ç¬¬",
        "äºĮ"
      ],
      [
        "åį",
        "ĥ"
      ],
      [
        "å¤",
        "®"
      ],
      [
        "åħ³",
        "ç³»"
      ],
      [
        "åº",
        "Ĺ"
      ],
      [
        "æ¯",
        "į"
      ],
      [
        "ä¸į",
        "ä¼ļ"
      ],
      [
        "æ¸",
        "¯"
      ],
      [
        "ä¹",
        "¡"
      ],
      [
        "æ¬",
        "¢"
      ],
      [
        "å¹´",
        "çļĦ"
      ],
      [
        "å®¢",
        "æĪ·"
      ],
      [
        "å¹³",
        "åı°"
      ],
      [
        "æį",
        "Ł"
      ],
      [
        "èĭ",
        "ı"
      ],
      [
        "è¿ĺ",
        "æĺ¯"
      ],
      [
        "æŃ",
        "¦"
      ],
      [
        "åĪ",
        "»"
      ],
      [
        "åº",
        "§"
      ],
      [
        "æ",
        "¦"
      ],
      [
        "é¥",
        "®"
      ],
      [
        "çĤ",
        "İ"
      ],
      [
        "ä¸ª",
        "äºº"
      ],
      [
        "ç»",
        "¿"
      ],
      [
        "çĶ",
        "³"
      ],
      [
        "åį",
        "¡"
      ],
      [
        "åĪĨ",
        "æŀĲ"
      ],
      [
        "æ³",
        "¢"
      ],
      [
        "åıĳ",
        "çİ°"
      ],
      [
        "çĤ",
        "º"
      ],
      [
        "è´£",
        "ä»»"
      ],
      [
        "èĢĮ",
        "ä¸Ķ"
      ],
      [
        "æĢĿ",
        "æĥ³"
      ],
      [
        "éĤ£",
        "ä¹Ī"
      ],
      [
        "æľīéĻĲ",
        "åħ¬åı¸"
      ],
      [
        "èĢ",
        "Ĳ"
      ],
      [
        "åĨħ",
        "å®¹"
      ],
      [
        "æĶ¿",
        "æ²»"
      ],
      [
        "åŃ¦",
        "éĻ¢"
      ],
      [
        "åĵģ",
        "çīĮ"
      ],
      [
        "ç«",
        "ŀ"
      ],
      [
        "çŁ",
        "Ń"
      ],
      [
        "ä¸Ĭ",
        "çļĦ"
      ],
      [
        "å¯¼",
        "èĩ´"
      ],
      [
        "åĲĦ",
        "ç§į"
      ],
      [
        "æľī",
        "æķĪ"
      ],
      [
        "è®¤",
        "ä¸º"
      ],
      [
        "çº",
        "³"
      ],
      [
        "å²",
        "ģ"
      ],
      [
        "æł",
        "ĳ"
      ],
      [
        "æĮ",
        "¥"
      ],
      [
        "ç»ı",
        "èĲ¥"
      ],
      [
        "åı",
        "¥"
      ],
      [
        "åĽ½",
        "åĨħ"
      ],
      [
        "é",
        "¼"
      ],
      [
        "åĪ¶",
        "éĢł"
      ],
      [
        "èĪ",
        "ª"
      ],
      [
        "éľĢ",
        "æ±Ĥ"
      ],
      [
        "ä¼ł",
        "ç»Ł"
      ],
      [
        "æķĻ",
        "åŃ¦"
      ],
      [
        "èĮ",
        "¶"
      ],
      [
        "è§£",
        "åĨ³"
      ],
      [
        "æĸ°",
        "çļĦ"
      ],
      [
        "äºº",
        "æīį"
      ],
      [
        "æĽ´",
        "åĬł"
      ],
      [
        "è´",
        "§"
      ],
      [
        "é¢",
        "Ŀ"
      ],
      [
        "åĨ",
        "ł"
      ],
      [
        "éģ",
        "¿"
      ],
      [
        "åĪ©",
        "çĶ¨"
      ],
      [
        "ç»¼",
        "åĲĪ"
      ],
      [
        "æ±½",
        "è½¦"
      ],
      [
        "å¯",
        "Ł"
      ],
      [
        "åĩ",
        "»"
      ],
      [
        ",",
        "âĢľ"
      ],
      [
        "ä½ĵ",
        "ç³»"
      ],
      [
        "äº§",
        "çĶŁ"
      ],
      [
        "æī",
        "¾"
      ],
      [
        "å¸Į",
        "æľĽ"
      ],
      [
        "èĥ",
        "ľ"
      ],
      [
        "éķ",
        "ĩ"
      ],
      [
        "æľ",
        "ĥ"
      ],
      [
        "åħ",
        "°"
      ],
      [
        "ç»",
        "ľ"
      ],
      [
        "æŁ",
        "Ĳ"
      ],
      [
        "éĴ",
        "Ł"
      ],
      [
        "èĻ",
        "½"
      ],
      [
        "æİ¨",
        "è¿Ľ"
      ],
      [
        "å°",
        "Ħ"
      ],
      [
        "æĿ¥",
        "çļĦ"
      ],
      [
        "ä¸º",
        "äºĨ"
      ],
      [
        "ä¼ļ",
        "è®®"
      ],
      [
        "è¿Ļ",
        "ä¸Ģ"
      ],
      [
        "ç»",
        "Ŀ"
      ],
      [
        "åį",
        "±"
      ],
      [
        ")",
        ","
      ],
      [
        "åĲ",
        "¦"
      ],
      [
        "çĽ®",
        "æłĩ"
      ],
      [
        "ä¸ļ",
        "åĬ¡"
      ],
      [
        "éĩį",
        "çĤ¹"
      ],
      [
        "èīº",
        "æľ¯"
      ],
      [
        "ç§",
        "»"
      ],
      [
        "å¼Ģ",
        "åıĳ"
      ],
      [
        "éĺ",
        "¿"
      ],
      [
        "çŁ¥",
        "è¯Ĩ"
      ],
      [
        "æĶ¯",
        "æĮģ"
      ],
      [
        "æİ¨",
        "åĬ¨"
      ],
      [
        "åĨ",
        "Ļ"
      ],
      [
        "æ¤",
        "į"
      ],
      [
        "çī",
        "Ľ"
      ],
      [
        "éĢł",
        "æĪĲ"
      ],
      [
        "èı",
        "ľ"
      ],
      [
        "çĶ¨",
        "äºİ"
      ],
      [
        "ä»",
        "¤"
      ],
      [
        "æĭ",
        "¥"
      ],
      [
        "äºĨ",
        "ä¸Ģ"
      ],
      [
        "æ¬",
        "§"
      ],
      [
        "çļĦ",
        "æĹ¶åĢĻ"
      ],
      [
        "å®ŀ",
        "æĸ½"
      ],
      [
        "åĲ",
        "¬"
      ],
      [
        "æŃ",
        "»"
      ],
      [
        "ç§",
        "Ģ"
      ],
      [
        "è¯",
        "»"
      ],
      [
        "å®¹",
        "æĺĵ"
      ],
      [
        "åĪ¶",
        "åº¦"
      ],
      [
        "æľī",
        "åħ³"
      ],
      [
        "ç¼",
        "ĸ"
      ],
      [
        "èĩª",
        "çĦ¶"
      ],
      [
        "å½",
        "ķ"
      ],
      [
        "åŃĺ",
        "åľ¨"
      ],
      [
        "æ°",
        "§"
      ],
      [
        "æį",
        "¢"
      ],
      [
        "é¢",
        "ĳ"
      ],
      [
        "ä¹ĭ",
        "åĲİ"
      ],
      [
        "çĹ",
        "Ľ"
      ],
      [
        "çī",
        "Ī"
      ],
      [
        "æĦ",
        "¿"
      ],
      [
        "æ´",
        "Ĺ"
      ],
      [
        "éģ",
        "ĩ"
      ],
      [
        "éĩĩ",
        "çĶ¨"
      ],
      [
        "çĸ¾",
        "çĹħ"
      ],
      [
        "æīĢ",
        "æľī"
      ],
      [
        "æ¶Ī",
        "è´¹"
      ],
      [
        "åħļ",
        "çļĦ"
      ],
      [
        "ä¹¦",
        "è®°"
      ],
      [
        "ç«",
        "ł"
      ],
      [
        "åº",
        "Ń"
      ],
      [
        "çī¹",
        "èī²"
      ],
      [
        "åĵ",
        "ª"
      ],
      [
        "çŁ¥",
        "éģĵ"
      ],
      [
        "æ±",
        "ī"
      ],
      [
        "ä¸į",
        "ä»ħ"
      ],
      [
        "æ",
        "ĩ"
      ],
      [
        "ä¸Ń",
        "å¤®"
      ],
      [
        "ä¿Ŀ",
        "æĮģ"
      ],
      [
        "ç«",
        "¯"
      ],
      [
        "æĿ¡",
        "ä»¶"
      ],
      [
        "åĬ",
        "ª"
      ],
      [
        "æĴ",
        "Ń"
      ],
      [
        "Â",
        "·"
      ],
      [
        "çĮ",
        "®"
      ],
      [
        "å¦Ĥ",
        "ä½ķ"
      ],
      [
        "æĸ",
        "Ĺ"
      ],
      [
        "çī¹",
        "åĪ«"
      ],
      [
        "æ¢",
        "¦"
      ],
      [
        "éĢ",
        "Ĳ"
      ],
      [
        "æĪ",
        "ı"
      ],
      [
        "ä»",
        "ª"
      ],
      [
        "å±",
        "Ĭ"
      ],
      [
        "æķĪ",
        "æŀľ"
      ],
      [
        "èģĮ",
        "ä¸ļ"
      ],
      [
        "æĤ",
        "¨"
      ],
      [
        "1",
        "00"
      ],
      [
        "åľ°",
        "æĸ¹"
      ],
      [
        "å»º",
        "ç«ĭ"
      ],
      [
        "èį",
        "ī"
      ],
      [
        "è",
        "Ľ"
      ],
      [
        "åºĶ",
        "è¯¥"
      ],
      [
        "è¾¾",
        "åĪ°"
      ],
      [
        "çĶ",
        "ļ"
      ],
      [
        "æĭ",
        "Ľ"
      ],
      [
        "å¤",
        "«"
      ],
      [
        "å®ŀ",
        "éĻħ"
      ],
      [
        "æĢ",
        "İ"
      ],
      [
        "æĵ",
        "į"
      ],
      [
        "åı",
        "³"
      ],
      [
        "âĢĶ",
        "âĢĶ"
      ],
      [
        "è´Ł",
        "è´£"
      ],
      [
        "è¿ĺ",
        "æľī"
      ],
      [
        "å®",
        "Ī"
      ],
      [
        "ç»ĵ",
        "åĲĪ"
      ],
      [
        "ä»",
        "į"
      ],
      [
        "ç²",
        "ī"
      ],
      [
        "è¿Ľ",
        "ä¸ĢæŃ¥"
      ],
      [
        "ãĢ",
        "Į"
      ],
      [
        "æĿ¥",
        "è¯´"
      ],
      [
        "å·",
        "¦"
      ],
      [
        "æĢ",
        "¥"
      ],
      [
        "é£Ł",
        "åĵģ"
      ],
      [
        "çĶ",
        "²"
      ],
      [
        "ä¸",
        "ĥ"
      ],
      [
        "ä¹",
        "Ŀ"
      ],
      [
        "åĮ»",
        "çĸĹ"
      ],
      [
        "è",
        "²"
      ],
      [
        "åĬª",
        "åĬĽ"
      ],
      [
        "è¿",
        "°"
      ],
      [
        "é",
        "ĸ"
      ],
      [
        "ä¸Ģ",
        "èµ·"
      ],
      [
        "é¡",
        "º"
      ],
      [
        "ç½ĳ",
        "ç»ľ"
      ],
      [
        "ä¹",
        "ħ"
      ],
      [
        "ä¸į",
        "è¦ģ"
      ],
      [
        "å½",
        "©"
      ],
      [
        "åŁ¹",
        "åħ»"
      ],
      [
        "åº",
        "Ĭ"
      ],
      [
        "ä¸Ĭ",
        "æµ·"
      ],
      [
        "åİŁ",
        "åĽł"
      ],
      [
        "ãĢ",
        "į"
      ],
      [
        "è¯",
        "Ĭ"
      ],
      [
        "åº",
        "ı"
      ],
      [
        "åıĸ",
        "å¾Ĺ"
      ],
      [
        "èº«",
        "ä½ĵ"
      ],
      [
        "é£",
        "ŀ"
      ],
      [
        "åĽ",
        "°"
      ],
      [
        "èŃ",
        "¦"
      ],
      [
        "ç»",
        "į"
      ],
      [
        "è¿Ĳ",
        "åĬ¨"
      ],
      [
        "5",
        "0"
      ],
      [
        "å¡",
        "ĳ"
      ],
      [
        "åĩ",
        "Ģ"
      ],
      [
        "æıĲ",
        "åĩº"
      ],
      [
        "æ´",
        "²"
      ],
      [
        "æĻ",
        "Ĥ"
      ],
      [
        "åĳ",
        "¢"
      ],
      [
        "çĻ",
        "»"
      ],
      [
        "è½",
        "®"
      ],
      [
        "è¿Ļ",
        "æĺ¯"
      ],
      [
        "èĤ",
        "ī"
      ],
      [
        "æİ",
        "Ī"
      ],
      [
        "ä¿ĥ",
        "è¿Ľ"
      ],
      [
        "ä»·",
        "æł¼"
      ],
      [
        "äº¿",
        "åħĥ"
      ],
      [
        "1",
        "8"
      ],
      [
        "ä¹",
        "°"
      ],
      [
        "ç»",
        "ĥ"
      ],
      [
        "%",
        ","
      ],
      [
        "è·",
        "µ"
      ],
      [
        "éĻ",
        "Ī"
      ],
      [
        "æİ",
        "ª"
      ],
      [
        "é",
        "¤"
      ],
      [
        "ä¹ĭ",
        "ä¸Ģ"
      ],
      [
        "ä¼ĺ",
        "åĬ¿"
      ],
      [
        "æĮģ",
        "ç»Ń"
      ],
      [
        "ç´",
        "¢"
      ],
      [
        "å¸®",
        "åĬ©"
      ],
      [
        "é¦",
        "Ĩ"
      ],
      [
        "å°",
        "¼"
      ],
      [
        "æĪĺ",
        "çķ¥"
      ],
      [
        "åħ¨",
        "çĲĥ"
      ],
      [
        "çĿ",
        "£"
      ],
      [
        "å",
        "³"
      ],
      [
        "éĴ",
        "Ī"
      ],
      [
        "å",
        "ª"
      ],
      [
        "ä»·",
        "åĢ¼"
      ],
      [
        "ç»",
        "©"
      ],
      [
        "è·",
        "Ł"
      ],
      [
        "åģ",
        "ľ"
      ],
      [
        "æ¢",
        "°"
      ],
      [
        "è½",
        "¯"
      ],
      [
        "ä¿Ŀ",
        "éļľ"
      ],
      [
        "åıĤ",
        "åĬł"
      ],
      [
        "è¿",
        "½"
      ],
      [
        "æĽ´",
        "å¤ļ"
      ],
      [
        "æ¯Ķ",
        "èµĽ"
      ],
      [
        "æĻº",
        "èĥ½"
      ],
      [
        "éĩĳ",
        "èŀį"
      ],
      [
        "è",
        "ĸ"
      ],
      [
        "æķ",
        "£"
      ],
      [
        "é",
        "½"
      ],
      [
        "è®¡",
        "åĪĴ"
      ],
      [
        "éĿ",
        "ł"
      ],
      [
        "èĻ½",
        "çĦ¶"
      ],
      [
        "ç",
        "µ"
      ],
      [
        "åħ",
        "¸"
      ],
      [
        "æĭ¥",
        "æľī"
      ],
      [
        "å§Ķ",
        "åĳĺ"
      ],
      [
        "åıª",
        "æľī"
      ],
      [
        "æ",
        "©"
      ],
      [
        "äºº",
        "ä»¬"
      ],
      [
        "èĦ",
        "ĳ"
      ],
      [
        "å¥",
        "Ĺ"
      ],
      [
        "ä¼",
        "¼"
      ],
      [
        "éĴ",
        "±"
      ],
      [
        "è¿Ľ",
        "åħ¥"
      ],
      [
        "éĢ",
        "Ģ"
      ],
      [
        "åı",
        "¶"
      ],
      [
        "éĺ",
        "¶"
      ],
      [
        "èĤ",
        "¤"
      ],
      [
        "ç¨³",
        "å®ļ"
      ],
      [
        "çĽ´",
        "æİ¥"
      ],
      [
        "æ£Ģ",
        "æŁ¥"
      ],
      [
        "éļı",
        "çĿĢ"
      ],
      [
        "æĪĲ",
        "åĬŁ"
      ],
      [
        "è",
        "ĵ"
      ],
      [
        "äºĭ",
        "ä¸ļ"
      ],
      [
        "æī",
        "©"
      ],
      [
        "èĥ",
        "¶"
      ],
      [
        "éĶĢ",
        "åĶ®"
      ],
      [
        "æķĻ",
        "å¸Ī"
      ],
      [
        "å¥",
        "ĭ"
      ],
      [
        "è´",
        "µ"
      ],
      [
        "æħ",
        "¢"
      ],
      [
        "åŁ¹",
        "è®Ń"
      ],
      [
        "ä¹ĭ",
        "éĹ´"
      ],
      [
        "åħ±",
        "åĲĮ"
      ],
      [
        "å®",
        "ģ"
      ],
      [
        "åŃ",
        "ķ"
      ],
      [
        "æĶ",
        "»"
      ],
      [
        "ä»ĭ",
        "ç»į"
      ],
      [
        "æĻ",
        "ļ"
      ],
      [
        "å¸",
        "Ń"
      ],
      [
        "èį",
        "£"
      ],
      [
        "èĭ",
        "¦"
      ],
      [
        "èı",
        "Į"
      ],
      [
        "åĨ",
        "²"
      ],
      [
        "çĪ",
        "¶"
      ],
      [
        "éĢ",
        "ı"
      ],
      [
        "æ°ĳ",
        "æĹı"
      ],
      [
        "çĶ¨",
        "æĪ·"
      ],
      [
        "çĶŁ",
        "æĢģ"
      ],
      [
        "çĶµ",
        "åŃĲ"
      ],
      [
        "ç",
        "¶"
      ],
      [
        "äº",
        "Ī"
      ],
      [
        "çĶļ",
        "èĩ³"
      ],
      [
        "æİ",
        "¢"
      ],
      [
        "åĪ",
        "ĺ"
      ],
      [
        "æī",
        "ĺ"
      ],
      [
        "åħħ",
        "åĪĨ"
      ],
      [
        "èĦ",
        "±"
      ],
      [
        "ç¥",
        "¨"
      ],
      [
        "åĬł",
        "å·¥"
      ],
      [
        "è½",
        "½"
      ],
      [
        "åº",
        "Ĩ"
      ],
      [
        "å®",
        "«"
      ],
      [
        "éĶ",
        "®"
      ],
      [
        "å¥",
        "ĩ"
      ],
      [
        "èĲ½",
        "å®ŀ"
      ],
      [
        "è¯",
        "ī"
      ],
      [
        "ç",
        "Ĵ"
      ],
      [
        "1",
        "6"
      ],
      [
        "æ³",
        "Ľ"
      ],
      [
        "é",
        "Ń"
      ],
      [
        "åıĳå±ķ",
        "çļĦ"
      ],
      [
        "åıĳ",
        "æĮ¥"
      ],
      [
        "æ¯",
        "ķ"
      ],
      [
        "è",
        "³"
      ],
      [
        "æŃ",
        "Į"
      ],
      [
        "å»",
        "¶"
      ],
      [
        "å",
        "ĺ"
      ],
      [
        "åģ",
        "ĩ"
      ],
      [
        "æ",
        "¾"
      ],
      [
        "è¿ĩç¨ĭ",
        "ä¸Ń"
      ],
      [
        "éĶ",
        "Ļ"
      ],
      [
        "åıĬ",
        "æĹ¶"
      ],
      [
        "è§Ħ",
        "åĪĴ"
      ],
      [
        "æĢ§",
        "çļĦ"
      ],
      [
        "æĹħ",
        "æ¸¸"
      ],
      [
        "æĮī",
        "çħ§"
      ],
      [
        "ä»»",
        "ä½ķ"
      ],
      [
        "ä¸¥",
        "éĩį"
      ],
      [
        "å¥",
        "¥"
      ],
      [
        "æĿ",
        "¾"
      ],
      [
        "çļĦ",
        "åıĳå±ķ"
      ],
      [
        "æīį",
        "èĥ½"
      ],
      [
        "å¾Ĺ",
        "åĪ°"
      ],
      [
        "ç",
        "ĺ"
      ],
      [
        "éĢ",
        "Ļ"
      ],
      [
        "èĥ",
        "Į"
      ],
      [
        "æ°",
        "¸"
      ],
      [
        "ä»",
        "ĺ"
      ],
      [
        "ä¸°",
        "å¯Į"
      ],
      [
        "è´",
        "¯"
      ],
      [
        "äº",
        "«"
      ],
      [
        "ä»Ĭ",
        "å¹´"
      ],
      [
        "åİ",
        "ļ"
      ],
      [
        "ä¹",
        "İ"
      ],
      [
        "èĥ½",
        "æºĲ"
      ],
      [
        "åĪĨ",
        "éĴŁ"
      ],
      [
        "è¡Į",
        "ä¸º"
      ],
      [
        "çĨ",
        "Ł"
      ],
      [
        "æĢ§",
        "èĥ½"
      ],
      [
        "ä¸¤",
        "ä¸ª"
      ],
      [
        "èĨ",
        "ľ"
      ],
      [
        "ä¸Ģ",
        "çĽ´"
      ],
      [
        "å®Į",
        "åĸĦ"
      ],
      [
        "å¨",
        "ģ"
      ],
      [
        "çģ",
        "µ"
      ],
      [
        "éĽ",
        "¨"
      ],
      [
        "ç¬¬",
        "ä¸ī"
      ],
      [
        "è¶ħ",
        "è¿ĩ"
      ],
      [
        "æĬ¥",
        "åĳĬ"
      ],
      [
        "äº¤",
        "éĢļ"
      ],
      [
        "ç»§",
        "ç»Ń"
      ],
      [
        "å½",
        "»"
      ],
      [
        "æł¸",
        "å¿ĥ"
      ],
      [
        "çĽ",
        "ĸ"
      ],
      [
        "æĢ",
        "Ģ"
      ],
      [
        "æ¯",
        "Ľ"
      ],
      [
        "ä½",
        "³"
      ],
      [
        "åħ³",
        "äºİ"
      ],
      [
        "éģ¿",
        "åħį"
      ],
      [
        "æĪĲ",
        "æľ¬"
      ],
      [
        "ä¼",
        "Ł"
      ],
      [
        "æľ",
        "ĭ"
      ],
      [
        "1",
        "4"
      ],
      [
        "è¿",
        "İ"
      ],
      [
        "èĭ",
        "¥"
      ],
      [
        "é£İ",
        "éĻ©"
      ],
      [
        "æĸ¹",
        "æ¡Ī"
      ],
      [
        "åĩı",
        "å°ĳ"
      ],
      [
        "é²",
        "ľ"
      ],
      [
        "æľ",
        "Ŀ"
      ],
      [
        "çĶŁ",
        "çī©"
      ],
      [
        "èĮĥ",
        "åĽ´"
      ],
      [
        "åº",
        "ĵ"
      ],
      [
        "è°",
        "Ī"
      ],
      [
        "å®ŀ",
        "è·µ"
      ],
      [
        "ä¸ĵ",
        "å®¶"
      ],
      [
        "åĽł",
        "ç´ł"
      ],
      [
        "è§Ħ",
        "æ¨¡"
      ],
      [
        "åĢ",
        "ĭ"
      ],
      [
        "æ¨¡",
        "å¼ı"
      ],
      [
        "å¼ķ",
        "èµ·"
      ],
      [
        "åıĺ",
        "åĮĸ"
      ],
      [
        "æ²",
        "Ļ"
      ],
      [
        "ç³»",
        "åĪĹ"
      ],
      [
        "å°",
        "¤"
      ],
      [
        "æľª",
        "æĿ¥"
      ],
      [
        "ä»ĸ",
        "çļĦ"
      ],
      [
        "ç¦",
        "ģ"
      ],
      [
        "èĹ",
        "ı"
      ],
      [
        "ç»ı",
        "è¿ĩ"
      ],
      [
        "æĬ",
        "ĵ"
      ],
      [
        "çļĦ",
        "å¤§"
      ],
      [
        "åĲ",
        "¯"
      ],
      [
        "æĽ",
        "²"
      ],
      [
        "éĻ",
        "Ħ"
      ],
      [
        "åĪ",
        "¤"
      ],
      [
        "æĿ",
        "Ĥ"
      ],
      [
        "éģ",
        "Ĺ"
      ],
      [
        "æ³ķ",
        "å¾ĭ"
      ],
      [
        "1",
        "3"
      ],
      [
        "å®",
        "Ĺ"
      ],
      [
        "åıĤ",
        "ä¸İ"
      ],
      [
[...]
